{
  "version": "1.0",
  "truncation": {
    "direction": "Right",
    "max_length": 128,
    "strategy": "LongestFirst",
    "stride": 0
  },
  "padding": {
    "strategy": {
      "Fixed": 128
    },
    "direction": "Right",
    "pad_to_multiple_of": null,
    "pad_id": 0,
    "pad_type_id": 0,
    "pad_token": "[PAD]"
  },
  "added_tokens": [
    {
      "id": 0,
      "content": "[PAD]",
      "single_word": false,
      "lstrip": false,
      "rstrip": false,
      "normalized": false,
      "special": true
    },
    {
      "id": 1,
      "content": "[UNK]",
      "single_word": false,
      "lstrip": false,
      "rstrip": false,
      "normalized": false,
      "special": true
    },
    {
      "id": 2,
      "content": "[CLS]",
      "single_word": false,
      "lstrip": false,
      "rstrip": false,
      "normalized": false,
      "special": true
    },
    {
      "id": 3,
      "content": "[SEP]",
      "single_word": false,
      "lstrip": false,
      "rstrip": false,
      "normalized": false,
      "special": true
    },
    {
      "id": 4,
      "content": "[MASK]",
      "single_word": false,
      "lstrip": false,
      "rstrip": false,
      "normalized": false,
      "special": true
    },
    {
      "id": 5,
      "content": "[URL]",
      "single_word": false,
      "lstrip": false,
      "rstrip": false,
      "normalized": false,
      "special": true
    },
    {
      "id": 6,
      "content": "[MENTION]",
      "single_word": false,
      "lstrip": false,
      "rstrip": false,
      "normalized": false,
      "special": true
    }
  ],
  "normalizer": null,
  "pre_tokenizer": {
    "type": "Whitespace"
  },
  "post_processor": {
    "type": "TemplateProcessing",
    "single": [
      {
        "SpecialToken": {
          "id": "[CLS]",
          "type_id": 0
        }
      },
      {
        "Sequence": {
          "id": "A",
          "type_id": 0
        }
      },
      {
        "SpecialToken": {
          "id": "[SEP]",
          "type_id": 0
        }
      }
    ],
    "pair": [
      {
        "SpecialToken": {
          "id": "[CLS]",
          "type_id": 0
        }
      },
      {
        "Sequence": {
          "id": "A",
          "type_id": 0
        }
      },
      {
        "SpecialToken": {
          "id": "[SEP]",
          "type_id": 0
        }
      },
      {
        "Sequence": {
          "id": "B",
          "type_id": 1
        }
      },
      {
        "SpecialToken": {
          "id": "[SEP]",
          "type_id": 1
        }
      }
    ],
    "special_tokens": {
      "[CLS]": {
        "id": "[CLS]",
        "ids": [
          2
        ],
        "tokens": [
          "[CLS]"
        ]
      },
      "[SEP]": {
        "id": "[SEP]",
        "ids": [
          3
        ],
        "tokens": [
          "[SEP]"
        ]
      }
    }
  },
  "decoder": null,
  "model": {
    "type": "WordPiece",
    "unk_token": "[UNK]",
    "continuing_subword_prefix": "##",
    "max_input_chars_per_word": 100,
    "vocab": {
      "[PAD]": 0,
      "[UNK]": 1,
      "[CLS]": 2,
      "[SEP]": 3,
      "[MASK]": 4,
      "[URL]": 5,
      "[MENTION]": 6,
      "!": 7,
      "\"": 8,
      "#": 9,
      "$": 10,
      "%": 11,
      "&": 12,
      "'": 13,
      "(": 14,
      ")": 15,
      "*": 16,
      "+": 17,
      ",": 18,
      "-": 19,
      ".": 20,
      "/": 21,
      "0": 22,
      "1": 23,
      "2": 24,
      "3": 25,
      "4": 26,
      "5": 27,
      "6": 28,
      "7": 29,
      "8": 30,
      "9": 31,
      ":": 32,
      ";": 33,
      "=": 34,
      ">": 35,
      "?": 36,
      "@": 37,
      "[": 38,
      "\\": 39,
      "]": 40,
      "_": 41,
      "a": 42,
      "b": 43,
      "c": 44,
      "d": 45,
      "e": 46,
      "f": 47,
      "g": 48,
      "h": 49,
      "i": 50,
      "j": 51,
      "k": 52,
      "l": 53,
      "m": 54,
      "n": 55,
      "o": 56,
      "p": 57,
      "q": 58,
      "r": 59,
      "s": 60,
      "t": 61,
      "u": 62,
      "v": 63,
      "w": 64,
      "x": 65,
      "y": 66,
      "z": 67,
      "|": 68,
      "~": 69,
      "©": 70,
      "­": 71,
      "¯": 72,
      "°": 73,
      "º": 74,
      "»": 75,
      "é": 76,
      "ñ": 77,
      "–": 78,
      "—": 79,
      "‘": 80,
      "’": 81,
      "“": 82,
      "”": 83,
      "•": 84,
      "…": 85,
      "™": 86,
      "##a": 87,
      "##m": 88,
      "##e": 89,
      "##d": 90,
      "##u": 91,
      "##r": 92,
      "##t": 93,
      "##f": 94,
      "##o": 95,
      "##s": 96,
      "##p": 97,
      "##y": 98,
      "##b": 99,
      "##h": 100,
      "##n": 101,
      "##k": 102,
      "##i": 103,
      "##g": 104,
      "##c": 105,
      "##w": 106,
      "##l": 107,
      "##v": 108,
      "##0": 109,
      "##j": 110,
      "##x": 111,
      "##-": 112,
      "##7": 113,
      "##9": 114,
      "##\"": 115,
      "##…": 116,
      "##_": 117,
      "##z": 118,
      "##?": 119,
      "##.": 120,
      "##q": 121,
      "##4": 122,
      "##2": 123,
      "##1": 124,
      "##3": 125,
      "##,": 126,
      "##8": 127,
      "##6": 128,
      "##)": 129,
      "##|": 130,
      "##ñ": 131,
      "##*": 132,
      "##5": 133,
      "##(": 134,
      "##'": 135,
      "##é": 136,
      "##!": 137,
      "##”": 138,
      "###": 139,
      "##:": 140,
      "##[": 141,
      "##/": 142,
      "##’": 143,
      "##@": 144,
      "##&": 145,
      "##;": 146,
      "##$": 147,
      "##%": 148,
      "##“": 149,
      "##>": 150,
      "##+": 151,
      "##¯": 152,
      "##\\": 153,
      "##°": 154,
      "##~": 155,
      "##in": 156,
      "##an": 157,
      "##ay": 158,
      "##on": 159,
      "##inay": 160,
      "##as": 161,
      "##te": 162,
      "binay": 163,
      "##en": 164,
      "##al": 165,
      "##ti": 166,
      "##ar": 167,
      "na": 168,
      "##ang": 169,
      "##er": 170,
      "##tion": 171,
      "##ha": 172,
      "ro": 173,
      "##ag": 174,
      "##??": 175,
      "##xas": 176,
      "##es": 177,
      "##or": 178,
      "an": 179,
      "roxas": 180,
      "ur": 181,
      "url": 182,
      "si": 183,
      "##ak": 184,
      "mar": 185,
      "##il": 186,
      "men": 187,
      "mention": 188,
      "##am": 189,
      "th": 190,
      "##ing": 191,
      "##un": 192,
      "##it": 193,
      "sa": 194,
      "##ter": 195,
      "##at": 196,
      "po": 197,
      "##is": 198,
      "##ot": 199,
      "du": 200,
      "the": 201,
      "ni": 202,
      "##id": 203,
      "to": 204,
      "ang": 205,
      "##ap": 206,
      "##aw": 207,
      "ng": 208,
      "##terte": 209,
      "##ed": 210,
      "##haha": 211,
      "duterte": 212,
      "##ou": 213,
      "in": 214,
      "##ro": 215,
      "##ad": 216,
      "##ir": 217,
      "kay": 218,
      "##ung": 219,
      "on": 220,
      "is": 221,
      "##ong": 222,
      "##ab": 223,
      "##01": 224,
      "##og": 225,
      "poe": 226,
      "##ce": 227,
      "##ly": 228,
      "##le": 229,
      "ha": 230,
      "##om": 231,
      "of": 232,
      "at": 233,
      "ka": 234,
      "##016": 235,
      "for": 236,
      "##et": 237,
      "##res": 238,
      "##ig": 239,
      "##ul": 240,
      "##2016": 241,
      "##ent": 242,
      "##????": 243,
      "??": 244,
      "##ip": 245,
      "##us": 246,
      "pa": 247,
      "##ga": 248,
      "and": 249,
      "##..": 250,
      "##and": 251,
      "##ut": 252,
      "##ate": 253,
      "##ya": 254,
      "##el": 255,
      "al": 256,
      "mo": 257,
      "##ko": 258,
      "##ala": 259,
      "##resid": 260,
      "##hat": 261,
      "ko": 262,
      "##ra": 263,
      "##re": 264,
      "lang": 265,
      "##ote": 266,
      "re": 267,
      "##os": 268,
      "vp": 269,
      "##ow": 270,
      "presid": 271,
      "##man": 272,
      "##aka": 273,
      "not": 274,
      "##ol": 275,
      "be": 276,
      "you": 277,
      "...": 278,
      "##um": 279,
      "ad": 280,
      "##ve": 281,
      "di": 282,
      "##ind": 283,
      "##ilip": 284,
      "##ah": 285,
      "only": 286,
      "yung": 287,
      "##ill": 288,
      "par": 289,
      "]:": 290,
      "##oo": 291,
      "mag": 292,
      "may": 293,
      "pag": 294,
      "mga": 295,
      "##up": 296,
      "he": 297,
      "##ic": 298,
      "hahaha": 299,
      "rt": 300,
      "##ver": 301,
      "nag": 302,
      "it": 303,
      "vi": 304,
      "nak": 305,
      "##ec": 306,
      "##ilipin": 307,
      "##im": 308,
      "nog": 309,
      "com": 310,
      "##ur": 311,
      "##indi": 312,
      "ne": 313,
      "wh": 314,
      "ph": 315,
      "##alo": 316,
      "ako": 317,
      "naman": 318,
      "ba": 319,
      "hindi": 320,
      "as": 321,
      "vote": 322,
      "sh": 323,
      "ay": 324,
      "tr": 325,
      "##oy": 326,
      "man": 327,
      "per": 328,
      "ch": 329,
      "un": 330,
      "st": 331,
      "##ob": 332,
      "##iam": 333,
      "ab": 334,
      "##eb": 335,
      "##nog": 336,
      "##ial": 337,
      "##alang": 338,
      "##st": 339,
      "##???": 340,
      "nognog": 341,
      "##iriam": 342,
      "?????": 343,
      "that": 344,
      "gra": 345,
      "##ik": 346,
      "##ac": 347,
      "##amp": 348,
      "miriam": 349,
      "##yo": 350,
      "grace": 351,
      "yan": 352,
      "pilipin": 353,
      "am": 354,
      "no": 355,
      "wag": 356,
      "sin": 357,
      "tal": 358,
      "kung": 359,
      "san": 360,
      "pro": 361,
      "##awa": 362,
      "##!!": 363,
      "president": 364,
      "##alan": 365,
      "##ago": 366,
      "##aga": 367,
      "comm": 368,
      "hal": 369,
      "##akit": 370,
      "pilipinas": 371,
      "##th": 372,
      "##ina": 373,
      "##ebate": 374,
      "##erc": 375,
      "##binay": 376,
      "##ch": 377,
      "????": 378,
      "##op": 379,
      "kas": 380,
      "##orr": 381,
      "##ts": 382,
      "me": 383,
      "via": 384,
      "##ust": 385,
      "##oto": 386,
      "say": 387,
      "eh": 388,
      "##iti": 389,
      "##ib": 390,
      "presiden": 391,
      "##ercial": 392,
      "##ith": 393,
      "pero": 394,
      "or": 395,
      "ele": 396,
      "if": 397,
      "but": 398,
      "commercial": 399,
      "so": 400,
      "wala": 401,
      "##ity": 402,
      "maka": 403,
      "go": 404,
      "nan": 405,
      "sen": 406,
      "##ma": 407,
      "onlybinay": 408,
      "pu": 409,
      "con": 410,
      "camp": 411,
      "##ds": 412,
      "##ita": 413,
      "de": 414,
      "##la": 415,
      "##aya": 416,
      "##ks": 417,
      "##qu": 418,
      "##yon": 419,
      "##ebates": 420,
      "mas": 421,
      "will": 422,
      "##ws": 423,
      "with": 424,
      "halalan": 425,
      "ib": 426,
      "this": 427,
      "para": 428,
      "pilipinasd": 429,
      "mat": 430,
      "##uw": 431,
      "walang": 432,
      "##ee": 433,
      "##red": 434,
      "his": 435,
      "##nd": 436,
      "##ebates2016": 437,
      "##end": 438,
      "pilipinasdebates2016": 439,
      "pin": 440,
      "mor": 441,
      "talaga": 442,
      "can": 443,
      "des": 444,
      "tv": 445,
      "??????": 446,
      "bakit": 447,
      "ta": 448,
      "tang": 449,
      "##ood": 450,
      "don": 451,
      "##uk": 452,
      "##vote": 453,
      "##ck": 454,
      "##ted": 455,
      "are": 456,
      "##se": 457,
      "makati": 458,
      "##ll": 459,
      "##ast": 460,
      "##ction": 461,
      "..": 462,
      "le": 463,
      "##ld": 464,
      "kaya": 465,
      "##irap": 466,
      "##bred": 467,
      "kayo": 468,
      "##bredo": 469,
      "up": 470,
      "##for": 471,
      "##ila": 472,
      "##ign": 473,
      "da": 474,
      "##ere": 475,
      "ma": 476,
      "what": 477,
      "##ano": 478,
      "##ers": 479,
      "do": 480,
      "##noy": 481,
      "##tiago": 482,
      "!!!": 483,
      "##cy": 484,
      "##omar": 485,
      "amp": 486,
      "##ri": 487,
      "##por": 488,
      "##ami": 489,
      "##orrup": 490,
      "halalan2016": 491,
      "santiago": 492,
      "mak": 493,
      "my": 494,
      "corrup": 495,
      "we": 496,
      "pl": 497,
      "##ion": 498,
      "##apat": 499,
      "ayaw": 500,
      "pand": 501,
      "pe": 502,
      "pang": 503,
      "ano": 504,
      "##out": 505,
      "phvote": 506,
      "##ess": 507,
      "##uh": 508,
      "##tr": 509,
      "##ama": 510,
      "##igh": 511,
      "win": 512,
      "news": 513,
      "election": 514,
      "nga": 515,
      "all": 516,
      "##ment": 517,
      "##yan": 518,
      "##ase": 519,
      "##ally": 520,
      "siya": 521,
      "##ilaw": 522,
      "##ould": 523,
      "##mb": 524,
      "##est": 525,
      "dis": 526,
      "la": 527,
      "aga": 528,
      "kah": 529,
      "pandak": 530,
      "##ue": 531,
      "##cos": 532,
      "##ub": 533,
      "##ff": 534,
      "nat": 535,
      "vice": 536,
      "puro": 537,
      "daw": 538,
      "##30": 539,
      "##ans": 540,
      "##eni": 541,
      "##aign": 542,
      "##ud": 543,
      "##oun": 544,
      "mayor": 545,
      "kasi": 546,
      "again": 547,
      "was": 548,
      "##ant": 549,
      "##tial": 550,
      "##per": 551,
      "campaign": 552,
      "din": 553,
      "nya": 554,
      "##ell": 555,
      "##rom": 556,
      "dah": 557,
      "##ej": 558,
      "##gh": 559,
      "res": 560,
      "nam": 561,
      "has": 562,
      "just": 563,
      "##ine": 564,
      "from": 565,
      "dahil": 566,
      "jej": 567,
      "du30": 568,
      "ex": 569,
      "##ayo": 570,
      "by": 571,
      "gr": 572,
      "##ie": 573,
      "##inis": 574,
      "##andid": 575,
      "kan": 576,
      "sp": 577,
      "##ali": 578,
      "haha": 579,
      "sino": 580,
      "good": 581,
      "sup": 582,
      "pol": 583,
      "who": 584,
      "##aki": 585,
      "about": 586,
      "##anda": 587,
      "hahahahaha": 588,
      "jejomar": 589,
      "ap": 590,
      "kap": 591,
      "have": 592,
      "sc": 593,
      "##uwid": 594,
      "##ike": 595,
      "##ard": 596,
      "hahahaha": 597,
      "why": 598,
      "against": 599,
      "kn": 600,
      "##itic": 601,
      "bl": 602,
      "##mp": 603,
      "##ito": 604,
      "##all": 605,
      "kahit": 606,
      "ts": 607,
      "##ia": 608,
      "##till": 609,
      "ads": 610,
      "ac": 611,
      "##ens": 612,
      ".\"": 613,
      "dapat": 614,
      "pala": 615,
      "nakak": 616,
      "##ta": 617,
      "##ok": 618,
      "niya": 619,
      "more": 620,
      "put": 621,
      "##der": 622,
      "##ilang": 623,
      "niyo": 624,
      "##aban": 625,
      "hirap": 626,
      "rin": 627,
      "peop": 628,
      "alam": 629,
      "##anes": 630,
      "trill": 631,
      "people": 632,
      "him": 633,
      "ik": 634,
      "##ty": 635,
      "##ado": 636,
      "nang": 637,
      "pnoy": 638,
      "##ili": 639,
      "##ear": 640,
      "##ps": 641,
      "##robredo": 642,
      "nyo": 643,
      "##aming": 644,
      "##pin": 645,
      "roxasrobredo": 646,
      "trillanes": 647,
      "##ation": 648,
      "##asa": 649,
      "##ath": 650,
      "nakaka": 651,
      "daya": 652,
      "ev": 653,
      "sur": 654,
      "##day": 655,
      "##iz": 656,
      "##ight": 657,
      "us": 658,
      "##yang": 659,
      "##are": 660,
      "says": 661,
      "##sad": 662,
      "##ph": 663,
      "##aman": 664,
      "##ome": 665,
      "your": 666,
      "end": 667,
      "nalang": 668,
      "##ink": 669,
      "##akot": 670,
      "##ous": 671,
      "manalo": 672,
      "li": 673,
      "off": 674,
      "desper": 675,
      "lead": 676,
      "politic": 677,
      "did": 678,
      "vs": 679,
      "##ug": 680,
      "##bn": 681,
      "##ino": 682,
      "##abe": 683,
      "like": 684,
      "##ka": 685,
      "ngay": 686,
      "lahat": 687,
      "how": 688,
      "nila": 689,
      "##we": 690,
      "corruption": 691,
      "know": 692,
      "ak": 693,
      "##ayan": 694,
      "abs": 695,
      "leni": 696,
      "##analo": 697,
      "bat": 698,
      "nap": 699,
      "than": 700,
      "##ating": 701,
      "ar": 702,
      "mal": 703,
      "##ih": 704,
      "sila": 705,
      "they": 706,
      "bet": 707,
      "en": 708,
      "fa": 709,
      "laki": 710,
      "presidential": 711,
      "sana": 712,
      "!!": 713,
      "now": 714,
      "qu": 715,
      "sya": 716,
      "ayawsad": 717,
      "ayawsadilaw": 718,
      "ever": 719,
      "##me": 720,
      "think": 721,
      "201": 722,
      "candid": 723,
      "pak": 724,
      "##ors": 725,
      "##app": 726,
      "suppor": 727,
      "let": 728,
      "over": 729,
      "ald": 730,
      "get": 731,
      "sec": 732,
      "ul": 733,
      "##uy": 734,
      "##presid": 735,
      "af": 736,
      "##ting": 737,
      "grabe": 738,
      "gin": 739,
      "##ca": 740,
      "really": 741,
      "coun": 742,
      "jun": 743,
      "lp": 744,
      "yun": 745,
      "##od": 746,
      "##ice": 747,
      "marcos": 748,
      "##ame": 749,
      "votes": 750,
      "tangina": 751,
      "ngayon": 752,
      "##one": 753,
      "##ters": 754,
      "ah": 755,
      "lol": 756,
      "##aa": 757,
      "philip": 758,
      "bob": 759,
      "see": 760,
      "still": 761,
      "tayo": 762,
      "##mm": 763,
      "##bab": 764,
      "##tic": 765,
      "wor": 766,
      "iss": 767,
      "##ahan": 768,
      "cr": 769,
      "pan": 770,
      "##oe": 771,
      "##ite": 772,
      "##ves": 773,
      "##vey": 774,
      "##ilipino": 775,
      "ikaw": 776,
      "kami": 777,
      "pw": 778,
      "tul": 779,
      "##to": 780,
      "parang": 781,
      "##ack": 782,
      "##orry": 783,
      "bin": 784,
      "bag": 785,
      "##ten": 786,
      "one": 787,
      "##ksyon": 788,
      "gan": 789,
      "hay": 790,
      "##lease": 791,
      "she": 792,
      "daang": 793,
      "candidate": 794,
      "##president": 795,
      "big": 796,
      "kang": 797,
      "tong": 798,
      "tsk": 799,
      "gi": 800,
      "out": 801,
      "sar": 802,
      "sorry": 803,
      "##oc": 804,
      "##na": 805,
      "##asan": 806,
      "##apos": 807,
      "inc": 808,
      "##use": 809,
      "presidente": 810,
      "election2016": 811,
      "survey": 812,
      "##eng": 813,
      "sig": 814,
      "sab": 815,
      "baka": 816,
      "##uch": 817,
      "2016": 818,
      "please": 819,
      "##aling": 820,
      "robredo": 821,
      "##ide": 822,
      "##ults": 823,
      "eleksyon": 824,
      "matuwid": 825,
      "mah": 826,
      "##iw": 827,
      "una": 828,
      "?????????": 829,
      "natin": 830,
      "fe": 831,
      "nung": 832,
      "te": 833,
      "##pag": 834,
      "##una": 835,
      "##und": 836,
      "##ough": 837,
      "br": 838,
      "mam": 839,
      "##ies": 840,
      "##abi": 841,
      "##ose": 842,
      "##pines": 843,
      "##ning": 844,
      "##iel": 845,
      "##ary": 846,
      "##ffic": 847,
      "aldub": 848,
      "##ure": 849,
      "##age": 850,
      "##roxas": 851,
      "dec": 852,
      "pr": 853,
      "##ank": 854,
      "##ake": 855,
      "##ede": 856,
      "after": 857,
      "call": 858,
      "dr": 859,
      "pal": 860,
      "run": 861,
      "##oth": 862,
      "se": 863,
      "tat": 864,
      "##ery": 865,
      "##ira": 866,
      "adm": 867,
      "def": 868,
      "##quino": 869,
      "aquino": 870,
      "bilang": 871,
      "##lo": 872,
      "##ance": 873,
      "##aba": 874,
      "show": 875,
      "corrupt": 876,
      "lag": 877,
      "our": 878,
      "won": 879,
      "##mis": 880,
      "##he": 881,
      "##wis": 882,
      "oh": 883,
      "tum": 884,
      "when": 885,
      "tao": 886,
      "laban": 887,
      "##de": 888,
      "##uck": 889,
      "##abas": 890,
      "alma": 891,
      "mananalo": 892,
      "pera": 893,
      "che": 894,
      "nanalo": 895,
      "dayaang": 896,
      "2015": 897,
      "11": 898,
      "mad": 899,
      "would": 900,
      "##ss": 901,
      "##bo": 902,
      "##elf": 903,
      "should": 904,
      "prob": 905,
      "tax": 906,
      "bel": 907,
      "hon": 908,
      "loo": 909,
      "##ao": 910,
      "political": 911,
      "?!": 912,
      "wa": 913,
      "##uti": 914,
      "##xt": 915,
      "????????": 916,
      "bas": 917,
      "muk": 918,
      "##ins": 919,
      "anti": 920,
      "said": 921,
      "##atch": 922,
      "##etano": 923,
      "her": 924,
      "im": 925,
      "pres": 926,
      "year": 927,
      "##hh": 928,
      "##han": 929,
      "##ious": 930,
      "##wer": 931,
      "##00": 932,
      "##ayetano": 933,
      "##eno": 934,
      "ina": 935,
      "kapag": 936,
      "philippines": 937,
      "pat": 938,
      "tin": 939,
      "##pec": 940,
      "##int": 941,
      "##tions": 942,
      "there": 943,
      "ito": 944,
      "cho": 945,
      "even": 946,
      "ag": 947,
      "yol": 948,
      "##du": 949,
      "##ence": 950,
      "##akaw": 951,
      "##our": 952,
      "nagawa": 953,
      "##ach": 954,
      "nancy": 955,
      "##try": 956,
      "country": 957,
      ":(": 958,
      "ca": 959,
      "lum": 960,
      "wt": 961,
      "wan": 962,
      "##ms": 963,
      "##ng": 964,
      "##way": 965,
      "##jun": 966,
      "##ime": 967,
      "need": 968,
      "conc": 969,
      "acc": 970,
      "op": 971,
      "ser": 972,
      "sus": 973,
      "sum": 974,
      "um": 975,
      "##bl": 976,
      "any": 977,
      "##amang": 978,
      "presidency": 979,
      "desperate": 980,
      "wtf": 981,
      "bad": 982,
      "city": 983,
      "pun": 984,
      "some": 985,
      "##poe": 986,
      "##ile": 987,
      "voteph": 988,
      "char": 989,
      "junjun": 990,
      "sob": 991,
      "tapos": 992,
      "##rong": 993,
      "##angg": 994,
      "##hahaha": 995,
      "duterte2016": 996,
      "ins": 997,
      "never": 998,
      "stand": 999,
      "cl": 1000,
      "ok": 1001,
      "##par": 1002,
      "##lang": 1003,
      "##apa": 1004,
      "##ady": 1005,
      "eleksyon2016": 1006,
      "\"[": 1007,
      "case": 1008,
      "tra": 1009,
      "##ern": 1010,
      "##its": 1011,
      "##ulo": 1012,
      "ung": 1013,
      "moreno": 1014,
      "##cause": 1015,
      "feel": 1016,
      "yolanda": 1017,
      "bal": 1018,
      "jus": 1019,
      "kat": 1020,
      "ll": 1021,
      "way": 1022,
      "##ner": 1023,
      "because": 1024,
      "maging": 1025,
      "onlybinayp": 1026,
      "iba": 1027,
      "voteph2016": 1028,
      "boto": 1029,
      "bayan": 1030,
      "lib": 1031,
      "nasa": 1032,
      "##amit": 1033,
      "##irita": 1034,
      "pinag": 1035,
      "cbn": 1036,
      "fir": 1037,
      "pum": 1038,
      "sw": 1039,
      "tot": 1040,
      "##amay": 1041,
      "next": 1042,
      "##the": 1043,
      "issue": 1044,
      "???": 1045,
      "happ": 1046,
      "mds": 1047,
      "##ily": 1048,
      "##ist": 1049,
      "inter": 1050,
      "##own": 1051,
      "adver": 1052,
      "lt": 1053,
      "pas": 1054,
      "pam": 1055,
      "pre": 1056,
      "##pal": 1057,
      "nako": 1058,
      "##ority": 1059,
      "isang": 1060,
      "##ulong": 1061,
      "##oboto": 1062,
      "talk": 1063,
      "sarili": 1064,
      "cayetano": 1065,
      "gust": 1066,
      "gma": 1067,
      "omb": 1068,
      "tan": 1069,
      "##dr": 1070,
      "##uds": 1071,
      "##tt": 1072,
      "##hing": 1073,
      "##ct": 1074,
      "##ator": 1075,
      "poor": 1076,
      "top": 1077,
      "##eta": 1078,
      "does": 1079,
      "putang": 1080,
      "proble": 1081,
      "dito": 1082,
      "here": 1083,
      "kar": 1084,
      "sak": 1085,
      "##dilaw": 1086,
      "##cbn": 1087,
      "##akbo": 1088,
      "then": 1089,
      "##ising": 1090,
      "##...": 1091,
      "back": 1092,
      "##uhay": 1093,
      "kita": 1094,
      "##ura": 1095,
      "##agot": 1096,
      "alle": 1097,
      "stop": 1098,
      "iboboto": 1099,
      "##port": 1100,
      "dayaangdilaw": 1101,
      "honasan": 1102,
      "adverti": 1103,
      "ombuds": 1104,
      "ombudsman": 1105,
      "2nd": 1106,
      "?\"": 1107,
      "bul": 1108,
      "jo": 1109,
      "last": 1110,
      "yang": 1111,
      "##di": 1112,
      "##pe": 1113,
      "##hamb": 1114,
      "##form": 1115,
      "##forpresident": 1116,
      "akong": 1117,
      "10": 1118,
      "dan": 1119,
      "kin": 1120,
      "mr": 1121,
      "min": 1122,
      "watch": 1123,
      "##rang": 1124,
      "##oko": 1125,
      "##so": 1126,
      "##wan": 1127,
      "##alit": 1128,
      "##alawa": 1129,
      "##aking": 1130,
      "nognoghamb": 1131,
      "every": 1132,
      "pwede": 1133,
      "wait": 1134,
      "nognoghambog": 1135,
      "debate": 1136,
      "vis": 1137,
      "anong": 1138,
      "##itch": 1139,
      "them": 1140,
      "##row": 1141,
      "##ress": 1142,
      "magk": 1143,
      "ask": 1144,
      "##sement": 1145,
      "black": 1146,
      "totoo": 1147,
      "fuck": 1148,
      "ow": 1149,
      "very": 1150,
      "##tu": 1151,
      "##pilipino": 1152,
      "##ied": 1153,
      "##ons": 1154,
      "##ente": 1155,
      "##ari": 1156,
      "##aran": 1157,
      "##ated": 1158,
      "##illa": 1159,
      "pagbab": 1160,
      "namin": 1161,
      "give": 1162,
      "bilangpilipino": 1163,
      "bus": 1164,
      "dami": 1165,
      "es": 1166,
      "mang": 1167,
      "pul": 1168,
      "sol": 1169,
      "tell": 1170,
      "wrong": 1171,
      "marroxas": 1172,
      "##ilo": 1173,
      "thes": 1174,
      "their": 1175,
      "pati": 1176,
      "##umb": 1177,
      "naka": 1178,
      "shut": 1179,
      "bi": 1180,
      "bum": 1181,
      "imp": 1182,
      "kor": 1183,
      "mong": 1184,
      "oth": 1185,
      "pad": 1186,
      "##ues": 1187,
      "##ring": 1188,
      "##ft": 1189,
      "##ba": 1190,
      "##hip": 1191,
      "##nan": 1192,
      "##get": 1193,
      "##ord": 1194,
      "##ory": 1195,
      "##ata": 1196,
      "##ada": 1197,
      "##iging": 1198,
      "....": 1199,
      "senator": 1200,
      "bobo": 1201,
      "gusto": 1202,
      "down": 1203,
      "ps": 1204,
      "sl": 1205,
      "time": 1206,
      "vo": 1207,
      "##sa": 1208,
      "##ving": 1209,
      "##ond": 1210,
      "##ero": 1211,
      "##oting": 1212,
      "##hahahaha": 1213,
      "##able": 1214,
      "##????????": 1215,
      "##ick": 1216,
      "pht": 1217,
      "nanaman": 1218,
      "dem": 1219,
      "puta": 1220,
      "bang": 1221,
      "bast": 1222,
      "gu": 1223,
      "kamp": 1224,
      "sy": 1225,
      "sal": 1226,
      "till": 1227,
      "##tin": 1228,
      "##yu": 1229,
      "##ge": 1230,
      "##cr": 1231,
      "##tive": 1232,
      "annoy": 1233,
      "##aks": 1234,
      "too": 1235,
      "##aho": 1236,
      "##urn": 1237,
      "##obinay": 1238,
      "gov": 1239,
      "iboto": 1240,
      "hahahahahaha": 1241,
      "sabi": 1242,
      "years": 1243,
      "advertisement": 1244,
      "day": 1245,
      "daming": 1246,
      "kal": 1247,
      "kak": 1248,
      "law": 1249,
      "ra": 1250,
      "##tra": 1251,
      "##fe": 1252,
      "##ante": 1253,
      "nai": 1254,
      "##results": 1255,
      "also": 1256,
      "ques": 1257,
      "##other": 1258,
      "boy": 1259,
      "bans": 1260,
      "buhay": 1261,
      "kam": 1262,
      "pab": 1263,
      "tw": 1264,
      "yes": 1265,
      "##oxas": 1266,
      "##pap": 1267,
      "##iya": 1268,
      "##art": 1269,
      "##ore": 1270,
      "anak": 1271,
      "thing": 1272,
      "##ish": 1273,
      "hate": 1274,
      "comp": 1275,
      "##akita": 1276,
      "sayo": 1277,
      "##andidat": 1278,
      "abscbn": 1279,
      "look": 1280,
      "##pect": 1281,
      "##duterte": 1282,
      "bot": 1283,
      "del": 1284,
      "los": 1285,
      "sha": 1286,
      "##mat": 1287,
      "##ews": 1288,
      "##lag": 1289,
      "inv": 1290,
      "read": 1291,
      "being": 1292,
      "come": 1293,
      "new": 1294,
      "chiz": 1295,
      "senate": 1296,
      "halalanresults": 1297,
      "make": 1298,
      "wins": 1299,
      "spe": 1300,
      "##ween": 1301,
      "between": 1302,
      "these": 1303,
      ";&": 1304,
      "boo": 1305,
      "kw": 1306,
      "mer": 1307,
      "mab": 1308,
      "##yong": 1309,
      "##gr": 1310,
      "##lob": 1311,
      "##tis": 1312,
      "nation": 1313,
      "pos": 1314,
      "kayong": 1315,
      "isa": 1316,
      "##ult": 1317,
      "mags": 1318,
      "trend": 1319,
      "sayang": 1320,
      "cons": 1321,
      "##quir": 1322,
      "tanga": 1323,
      "##alif": 1324,
      "wanted": 1325,
      "daniel": 1326,
      "bago": 1327,
      "high": 1328,
      "mis": 1329,
      "map": 1330,
      "med": 1331,
      "mand": 1332,
      "nar": 1333,
      "noy": 1334,
      "pus": 1335,
      "ut": 1336,
      "well": 1337,
      "##em": 1338,
      "##ful": 1339,
      "##wa": 1340,
      "##vie": 1341,
      "##anya": 1342,
      "##ision": 1343,
      "##enta": 1344,
      "alre": 1345,
      "rec": 1346,
      "notobinay": 1347,
      "part": 1348,
      "partial": 1349,
      "##ich": 1350,
      "unity": 1351,
      "masy": 1352,
      "##riority": 1353,
      "app": 1354,
      "didn": 1355,
      "drama": 1356,
      "adminis": 1357,
      "sobrang": 1358,
      "already": 1359,
      "bu": 1360,
      "dun": 1361,
      "kong": 1362,
      "kandidat": 1363,
      "sm": 1364,
      "##mo": 1365,
      "##uro": 1366,
      "##4ps": 1367,
      "##inal": 1368,
      "nab": 1369,
      "power": 1370,
      "##abaho": 1371,
      "party": 1372,
      "its": 1373,
      "manila": 1374,
      "chang": 1375,
      "dav": 1376,
      "supporters": 1377,
      "traffic": 1378,
      "onlybinaypriority": 1379,
      "other": 1380,
      "##nanakaw": 1381,
      "onlybinaypriority4ps": 1382,
      "bala": 1383,
      "fr": 1384,
      "fri": 1385,
      "fight": 1386,
      "lalo": 1387,
      "much": 1388,
      "want": 1389,
      "##win": 1390,
      "##asabi": 1391,
      "ans": 1392,
      "##igil": 1393,
      "rep": 1394,
      "under": 1395,
      "meet": 1396,
      "conf": 1397,
      "pls": 1398,
      "##ather": 1399,
      "desperado": 1400,
      "mukha": 1401,
      "##theend": 1402,
      "bansa": 1403,
      "ear": 1404,
      "fac": 1405,
      "gag": 1406,
      "guy": 1407,
      "voting": 1408,
      "##uan": 1409,
      "##yern": 1410,
      "##ny": 1411,
      "##__": 1412,
      "##agang": 1413,
      "##ulog": 1414,
      "bec": 1415,
      "##ikita": 1416,
      "##fore": 1417,
      "results": 1418,
      "ginawa": 1419,
      "own": 1420,
      "bias": 1421,
      "##aksyon": 1422,
      "hel": 1423,
      "kab": 1424,
      "sun": 1425,
      "talo": 1426,
      "takot": 1427,
      "##ute": 1428,
      "##ged": 1429,
      "##li": 1430,
      "##ason": 1431,
      "##alik": 1432,
      "##apan": 1433,
      "##awang": 1434,
      "dutertetill": 1435,
      "most": 1436,
      "real": 1437,
      "pilipino": 1438,
      "ibang": 1439,
      "##trip": 1440,
      "exp": 1441,
      "##weet": 1442,
      "mahirap": 1443,
      "##iously": 1444,
      "annoying": 1445,
      "##matuwid": 1446,
      "##loban": 1447,
      "##quirer": 1448,
      "dutertetilltheend": 1449,
      "12": 1450,
      "gob": 1451,
      "lng": 1452,
      "ter": 1453,
      "##ugh": 1454,
      "##ry": 1455,
      "##ying": 1456,
      "##ition": 1457,
      "##ort": 1458,
      "##under": 1459,
      "pover": 1460,
      "##apo": 1461,
      "inquirer": 1462,
      "##uloy": 1463,
      "pagk": 1464,
      "state": 1465,
      "##acloban": 1466,
      "##itiz": 1467,
      "face": 1468,
      "##oney": 1469,
      "boboto": 1470,
      "standard": 1471,
      "poverty": 1472,
      "dig": 1473,
      "id": 1474,
      "lo": 1475,
      "were": 1476,
      "##pp": 1477,
      "##bong": 1478,
      "##nay": 1479,
      "##ven": 1480,
      "##jo": 1481,
      "##jec": 1482,
      "##ass": 1483,
      "during": 1484,
      "att": 1485,
      "reg": 1486,
      "##ech": 1487,
      "##ible": 1488,
      "god": 1489,
      "publ": 1490,
      "!!!!": 1491,
      "nakakat": 1492,
      "bagong": 1493,
      "belie": 1494,
      "##ilocos": 1495,
      "padilla": 1496,
      "bong": 1497,
      "ceb": 1498,
      "cla": 1499,
      "fun": 1500,
      "ga": 1501,
      "gago": 1502,
      "kul": 1503,
      "money": 1504,
      "nand": 1505,
      "pap": 1506,
      "pla": 1507,
      "rating": 1508,
      "vide": 1509,
      "##mar": 1510,
      "##inig": 1511,
      "##eral": 1512,
      "##orse": 1513,
      "##amb": 1514,
      "##atan": 1515,
      "today": 1516,
      "##abang": 1517,
      "##oll": 1518,
      "##ump": 1519,
      "pangulo": 1520,
      "##oke": 1521,
      "ginag": 1522,
      "basta": 1523,
      "wantedpresident": 1524,
      "gobyern": 1525,
      "co": 1526,
      "citiz": 1527,
      "hand": 1528,
      "htt": 1529,
      "il": 1530,
      "##ever": 1531,
      "##tw": 1532,
      "##yy": 1533,
      "##yeta": 1534,
      "##by": 1535,
      "##ci": 1536,
      "##con": 1537,
      "##((": 1538,
      "magnanakaw": 1539,
      "naging": 1540,
      "dont": 1541,
      "daan": 1542,
      "nakakainis": 1543,
      "leaders": 1544,
      "second": 1545,
      "ganyan": 1546,
      "running": 1547,
      "##miss": 1548,
      "susp": 1549,
      "30": 1550,
      ":)": 1551,
      "buy": 1552,
      "bwis": 1553,
      "car": 1554,
      "could": 1555,
      "dj": 1556,
      "galit": 1557,
      "kaw": 1558,
      "nal": 1559,
      "pp": 1560,
      "tar": 1561,
      "yet": 1562,
      "##son": 1563,
      "##pa": 1564,
      "##ness": 1565,
      "##niel": 1566,
      "##kin": 1567,
      "##1nay": 1568,
      "##anc": 1569,
      "though": 1570,
      "##ats": 1571,
      "##atay": 1572,
      "##ungaling": 1573,
      "##ents": 1574,
      "report": 1575,
      "before": 1576,
      "##illion": 1577,
      "##ict": 1578,
      "naku": 1579,
      "onlybinaywin": 1580,
      "hahah": 1581,
      "issues": 1582,
      "candidates": 1583,
      "siguro": 1584,
      "defens": 1585,
      "problema": 1586,
      "meron": 1587,
      "##view": 1588,
      "digong": 1589,
      "onlybinaywinner": 1590,
      "er": 1591,
      "filipino": 1592,
      "got": 1593,
      "king": 1594,
      "mali": 1595,
      "oo": 1596,
      "ob": 1597,
      "same": 1598,
      "##do": 1599,
      "##self": 1600,
      "##les": 1601,
      "##val": 1602,
      "##vel": 1603,
      "##5aksyon": 1604,
      "##iness": 1605,
      "##ako": 1606,
      "kailang": 1607,
      "##ree": 1608,
      "ayan": 1609,
      "trabaho": 1610,
      "talagang": 1611,
      "##quia": 1612,
      "##ansin": 1613,
      "##athniel": 1614,
      "dayaan": 1615,
      "endors": 1616,
      "jusko": 1617,
      "first": 1618,
      "happen": 1619,
      "doesn": 1620,
      "jojo": 1621,
      "korina": 1622,
      "psy": 1623,
      "trending": 1624,
      "public": 1625,
      "cebu": 1626,
      "##quiao": 1627,
      "bre": 1628,
      "el": 1629,
      "far": 1630,
      "fam": 1631,
      "hala": 1632,
      "huh": 1633,
      "nas": 1634,
      "tl": 1635,
      "##ual": 1636,
      "##pat": 1637,
      "##pet": 1638,
      "##hang": 1639,
      "##ke": 1640,
      "##io": 1641,
      "##co": 1642,
      "##ling": 1643,
      "##anan": 1644,
      "roro": 1645,
      "##esa": 1646,
      "post": 1647,
      "##ise": 1648,
      "##lec": 1649,
      "paano": 1650,
      "parin": 1651,
      "##vern": 1652,
      "##urakot": 1653,
      "miriam2016": 1654,
      "##alanan": 1655,
      "govern": 1656,
      "##qualif": 1657,
      "##yone": 1658,
      "deser": 1659,
      "##mber": 1660,
      "binoto": 1661,
      "##iwala": 1662,
      "choice": 1663,
      "allega": 1664,
      "davao": 1665,
      "guys": 1666,
      "video": 1667,
      "bar": 1668,
      "bah": 1669,
      "dar": 1670,
      "job": 1671,
      "tak": 1672,
      "ve": 1673,
      "wow": 1674,
      "##mn": 1675,
      "##ends": 1676,
      "##ency": 1677,
      "##arap": 1678,
      "##akas": 1679,
      "maraming": 1680,
      "##ull": 1681,
      "beh": 1682,
      "uno": 1683,
      "star": 1684,
      "elections": 1685,
      "namang": 1686,
      "kanina": 1687,
      "##ension": 1688,
      "fail": 1689,
      "pakyu": 1690,
      "laglag": 1691,
      "switch": 1692,
      "pagbabago": 1693,
      "esc": 1694,
      "voters": 1695,
      "defensor": 1696,
      "kailangan": 1697,
      "--": 1698,
      "hell": 1699,
      "numb": 1700,
      "##ail": 1701,
      "##ret": 1702,
      "##nl": 1703,
      "##lb": 1704,
      "##vo": 1705,
      "##ash": 1706,
      "##tim": 1707,
      "##ards": 1708,
      "##unta": 1709,
      "##ism": 1710,
      "##apag": 1711,
      "##awin": 1712,
      "##ula": 1713,
      "diba": 1714,
      "nags": 1715,
      "asia": 1716,
      "shit": 1717,
      "kase": 1718,
      "plunder": 1719,
      "name": 1720,
      "office": 1721,
      "ulol": 1722,
      "??????????": 1723,
      "##fficial": 1724,
      "tanim": 1725,
      "putangina": 1726,
      "believe": 1727,
      "place": 1728,
      "unofficial": 1729,
      "bir": 1730,
      "both": 1731,
      "hum": 1732,
      "lal": 1733,
      "mm": 1734,
      "mind": 1735,
      "muna": 1736,
      "pano": 1737,
      "self": 1738,
      "take": 1739,
      "##maka": 1740,
      "##ian": 1741,
      "##inira": 1742,
      "##alita": 1743,
      "##hab": 1744,
      "##agal": 1745,
      "those": 1746,
      "sad": 1747,
      "##apang": 1748,
      "pac": 1749,
      "##utan": 1750,
      "move": 1751,
      "##oooo": 1752,
      "nakita": 1753,
      "trnd": 1754,
      "chance": 1755,
      "kasalanan": 1756,
      "##itim": 1757,
      "order": 1758,
      "desp": 1759,
      "##ukas": 1760,
      "##irapan": 1761,
      "disqualif": 1762,
      "##udero": 1763,
      "kanya": 1764,
      "akala": 1765,
      "##ihin": 1766,
      "enough": 1767,
      "##paganda": 1768,
      "brig": 1769,
      "##ankapa": 1770,
      "accus": 1771,
      "asked": 1772,
      "##tration": 1773,
      "##tisankapa": 1774,
      "administration": 1775,
      "statement": 1776,
      "gobyerno": 1777,
      "allegations": 1778,
      "escudero": 1779,
      "##makatisankapa": 1780,
      "trndnl": 1781,
      "!\"": 1782,
      "buti": 1783,
      "full": 1784,
      "hard": 1785,
      "kesa": 1786,
      "nil": 1787,
      "nito": 1788,
      "su": 1789,
      "son": 1790,
      "sure": 1791,
      "##aas": 1792,
      "##pine": 1793,
      "##ive": 1794,
      "##ana": 1795,
      "##ingin": 1796,
      "##atang": 1797,
      "##ungan": 1798,
      "##cep": 1799,
      "##igay": 1800,
      "##utin": 1801,
      "magp": 1802,
      "pagka": 1803,
      "##upid": 1804,
      "nagk": 1805,
      "mean": 1806,
      "##que": 1807,
      "pangalawa": 1808,
      "philippine": 1809,
      "bagay": 1810,
      "team": 1811,
      "okay": 1812,
      "##draw": 1813,
      "business": 1814,
      "tells": 1815,
      "##crv": 1816,
      "bongbong": 1817,
      "claim": 1818,
      "ppcrv": 1819,
      "18": 1820,
      "away": 1821,
      "epal": 1822,
      "jud": 1823,
      "joke": 1824,
      "long": 1825,
      "mon": 1826,
      "ugh": 1827,
      "##mam": 1828,
      "##leni": 1829,
      "##vin": 1830,
      "##ved": 1831,
      "##201": 1832,
      "##inmakatisankapa": 1833,
      "nabab": 1834,
      "sis": 1835,
      "dum": 1836,
      "##awag": 1837,
      "inf": 1838,
      "##adong": 1839,
      "paawa": 1840,
      "##ates": 1841,
      "##kol": 1842,
      "reason": 1843,
      "nothing": 1844,
      "magiging": 1845,
      "##vers": 1846,
      "while": 1847,
      "trust": 1848,
      "stupid": 1849,
      "aba": 1850,
      "propaganda": 1851,
      "onlybinayun": 1852,
      "onlybinayinmakatisankapa": 1853,
      "withdraw": 1854,
      "pinoy": 1855,
      "tvc": 1856,
      "dismiss": 1857,
      "##ellow": 1858,
      "kana": 1859,
      "apec": 1860,
      "actu": 1861,
      "roxasrobredo2016": 1862,
      "nakakairita": 1863,
      "life": 1864,
      "leading": 1865,
      "araw": 1866,
      "ulit": 1867,
      "tulad": 1868,
      "ganun": 1869,
      "race": 1870,
      "answer": 1871,
      "help": 1872,
      "citizens": 1873,
      "##2015": 1874,
      "air": 1875,
      "bo": 1876,
      "bay": 1877,
      "bukas": 1878,
      "dz": 1879,
      "dil": 1880,
      "ip": 1881,
      "ipag": 1882,
      "kum": 1883,
      "land": 1884,
      "lec": 1885,
      "must": 1886,
      "que": 1887,
      "rel": 1888,
      "sand": 1889,
      "sama": 1890,
      "vic": 1891,
      "##rs": 1892,
      "##hot": 1893,
      "##ited": 1894,
      "##ler": 1895,
      "##ayong": 1896,
      "##asyon": 1897,
      "simp": 1898,
      "##apit": 1899,
      "isip": 1900,
      "##omet": 1901,
      "##igo": 1902,
      "##olog": 1903,
      "been": 1904,
      "##ahin": 1905,
      "nagb": 1906,
      "nakikita": 1907,
      "voted": 1908,
      "person": 1909,
      "stud": 1910,
      "##thday": 1911,
      "kaso": 1912,
      "going": 1913,
      "##uwa": 1914,
      "##uka": 1915,
      "##ihan": 1916,
      "2010": 1917,
      "gets": 1918,
      "tuloy": 1919,
      "decision": 1920,
      "admin": 1921,
      "tumakbo": 1922,
      "cheap": 1923,
      "lumabas": 1924,
      "open": 1925,
      "interview": 1926,
      "comelec": 1927,
      "masyado": 1928,
      "change": 1929,
      "family": 1930,
      "behind": 1931,
      "despite": 1932,
      "leche": 1933,
      ",'": 1934,
      "cour": 1935,
      "dou": 1936,
      "dir": 1937,
      "deni": 1938,
      "had": 1939,
      "kathniel": 1940,
      "mach": 1941,
      "right": 1942,
      "rank": 1943,
      "sub": 1944,
      "sagot": 1945,
      "taga": 1946,
      "##uha": 1947,
      "##ris": 1948,
      "##bala": 1949,
      "##ho": 1950,
      "##hin": 1951,
      "##ges": 1952,
      "##ces": 1953,
      "##wee": 1954,
      "##time": 1955,
      "##aring": 1956,
      "sir": 1957,
      "##unog": 1958,
      "##isa": 1959,
      "##ided": 1960,
      "##round": 1961,
      "ata": 1962,
      "notomar": 1963,
      "hahahah": 1964,
      "nagt": 1965,
      "where": 1966,
      "true": 1967,
      "gracepoe": 1968,
      "sina": 1969,
      "promis": 1970,
      "saying": 1971,
      "presidenti": 1972,
      "tv5aksyon": 1973,
      "kahirapan": 1974,
      "apolog": 1975,
      "evil": 1976,
      "offic": 1977,
      "leader": 1978,
      "support": 1979,
      "punyeta": 1980,
      "feeling": 1981,
      "question": 1982,
      "speech": 1983,
      "kwenta": 1984,
      "media": 1985,
      "government": 1986,
      "pacquiao": 1987,
      "20": 1988,
      "bid": 1989,
      "dyan": 1990,
      "ed": 1991,
      "ewan": 1992,
      "hoy": 1993,
      "ilo": 1994,
      "kag": 1995,
      "late": 1996,
      "otw": 1997,
      "rap": 1998,
      "ste": 1999,
      "tuwid": 2000,
      "turn": 2001,
      "##da": 2002,
      "##dy": 2003,
      "##rr": 2004,
      "##tro": 2005,
      "##pm": 2006,
      "##wh": 2007,
      "##ña": 2008,
      "##anao": 2009,
      "binayforpresident": 2010,
      "##tition": 2011,
      "##isip": 2012,
      "##awan": 2013,
      "##adaya": 2014,
      "ofw": 2015,
      "rece": 2016,
      "ayoko": 2017,
      "trapo": 2018,
      "china": 2019,
      "##iba": 2020,
      "dear": 2021,
      "uplb": 2022,
      "respect": 2023,
      "politics": 2024,
      "pake": 2025,
      "agad": 2026,
      "##ways": 2027,
      "seriously": 2028,
      "class": 2029,
      "birthday": 2030,
      "##cept": 2031,
      "doub": 2032,
      "\".": 2033,
      "cas": 2034,
      "gt": 2035,
      "gum": 2036,
      "kalo": 2037,
      "kca": 2038,
      "lot": 2039,
      "makita": 2040,
      "rather": 2041,
      "syang": 2042,
      "tas": 2043,
      "tigil": 2044,
      "yellow": 2045,
      "##fpp": 2046,
      "##pos": 2047,
      "##yn": 2048,
      "##ix": 2049,
      "##line": 2050,
      "##inang": 2051,
      "##alth": 2052,
      "##tik": 2053,
      "##ared": 2054,
      "rodr": 2055,
      "##amd": 2056,
      "poll": 2057,
      "##isyon": 2058,
      "##ota": 2059,
      "##ables": 2060,
      "##andem": 2061,
      "##racy": 2062,
      "add": 2063,
      "##ahim": 2064,
      "neg": 2065,
      "nega": 2066,
      "str": 2067,
      "story": 2068,
      "abby": 2069,
      "##thing": 2070,
      "taong": 2071,
      "least": 2072,
      "!!!!!": 2073,
      "petition": 2074,
      "##uhan": 2075,
      "##ffec": 2076,
      "##ound": 2077,
      "nakakas": 2078,
      "himself": 2079,
      "thank": 2080,
      "alden": 2081,
      "##aaaa": 2082,
      "made": 2083,
      "concede": 2084,
      "liberal": 2085,
      "magkak": 2086,
      "noynoy": 2087,
      "term": 2088,
      "ratings": 2089,
      "buying": 2090,
      "bwiset": 2091,
      "actually": 2092,
      "##ahimik": 2093,
      "22": 2094,
      "cn": 2095,
      "edi": 2096,
      "galing": 2097,
      "hug": 2098,
      "lamang": 2099,
      "mom": 2100,
      "nin": 2101,
      "net": 2102,
      "sakit": 2103,
      "such": 2104,
      "skin": 2105,
      "tung": 2106,
      "##mor": 2107,
      "##uterte": 2108,
      "##fic": 2109,
      "##oon": 2110,
      "##pon": 2111,
      "##pak": 2112,
      "##ned": 2113,
      "##kot": 2114,
      "##wor": 2115,
      "##ls": 2116,
      "##ines": 2117,
      "##inaya": 2118,
      "##tig": 2119,
      "##ert": 2120,
      "##haw": 2121,
      "another": 2122,
      "##atr": 2123,
      "##edeng": 2124,
      "inyo": 2125,
      "kainis": 2126,
      "always": 2127,
      "rem": 2128,
      "##ost": 2129,
      "pare": 2130,
      "pagiging": 2131,
      "head": 2132,
      "many": 2133,
      "sinis": 2134,
      "##ope": 2135,
      "plan": 2136,
      "spot": 2137,
      "hahahahahahaha": 2138,
      "nangy": 2139,
      "##ations": 2140,
      "##asailocos": 2141,
      "offer": 2142,
      "batang": 2143,
      "critic": 2144,
      "##tent": 2145,
      "##ocracy": 2146,
      "someone": 2147,
      "questions": 2148,
      "two": 2149,
      "botante": 2150,
      "kandidato": 2151,
      "friends": 2152,
      "love": 2153,
      "attack": 2154,
      "https": 2155,
      "number": 2156,
      "onlybinayunasailocos": 2157,
      "dilg": 2158,
      "official": 2159,
      "otwol": 2160,
      "rodrigo": 2161,
      "%,": 2162,
      ".??": 2163,
      "25": 2164,
      ":/": 2165,
      "best": 2166,
      "bud": 2167,
      "b1nay": 2168,
      "dam": 2169,
      "filipin": 2170,
      "ku": 2171,
      "lu": 2172,
      "somet": 2173,
      "ton": 2174,
      "tandem": 2175,
      "yo": 2176,
      "##mer": 2177,
      "##date": 2178,
      "##tle": 2179,
      "##sin": 2180,
      "##bb": 2181,
      "##bob": 2182,
      "##hiya": 2183,
      "##com": 2184,
      "##lent": 2185,
      "##vp": 2186,
      "##aly": 2187,
      "##ars": 2188,
      "##agan": 2189,
      "##orta": 2190,
      "sick": 2191,
      "siyang": 2192,
      "saan": 2193,
      "##teroxas": 2194,
      "##uto": 2195,
      "reme": 2196,
      "##iminal": 2197,
      "phvo": 2198,
      "trans": 2199,
      "##str": 2200,
      "sinungaling": 2201,
      "hall": 2202,
      "##che": 2203,
      "contin": 2204,
      "##eep": 2205,
      "##enda": 2206,
      "tangg": 2207,
      "##ukha": 2208,
      "maitim": 2209,
      "disapp": 2210,
      "spend": 2211,
      "##arehot": 2212,
      "bata": 2213,
      "seeing": 2214,
      "work": 2215,
      "giving": 2216,
      "income": 2217,
      "sige": 2218,
      "mukhang": 2219,
      "choose": 2220,
      "accoun": 2221,
      "puno": 2222,
      "onlybinayparehot": 2223,
      "happy": 2224,
      "alleged": 2225,
      "pagbabalik": 2226,
      "solid": 2227,
      "democracy": 2228,
      "kampo": 2229,
      "naiinis": 2230,
      "fact": 2231,
      "ginagawa": 2232,
      "suspension": 2233,
      "dzmm": 2234,
      "denies": 2235,
      "tungkol": 2236,
      "filipinos": 2237,
      "something": 2238,
      "phvoteroxas": 2239,
      "onlybinayparehotayo": 2240,
      "!??": 2241,
      "19": 2242,
      "bab": 2243,
      "cong": 2244,
      "col": 2245,
      "eith": 2246,
      "eto": 2247,
      "fear": 2248,
      "hin": 2249,
      "huw": 2250,
      "ke": 2251,
      "kaming": 2252,
      "less": 2253,
      "mala": 2254,
      "nor": 2255,
      "nmn": 2256,
      "om": 2257,
      "opin": 2258,
      "pwe": 2259,
      "ret": 2260,
      "sam": 2261,
      "tut": 2262,
      "tacloban": 2263,
      "tingin": 2264,
      "##tomar": 2265,
      "##ool": 2266,
      "##hol": 2267,
      "##ience": 2268,
      "##ww": 2269,
      "##lan": 2270,
      "##vis": 2271,
      "##tead": 2272,
      "binay2016": 2273,
      "##ene": 2274,
      "##alaban": 2275,
      "##angan": 2276,
      "##eric": 2277,
      "marun": 2278,
      "marami": 2279,
      "##iling": 2280,
      "##iting": 2281,
      "touch": 2282,
      "##rol": 2283,
      "##unguna": 2284,
      "##ela": 2285,
      "which": 2286,
      "##acy": 2287,
      "prote": 2288,
      "progr": 2289,
      "means": 2290,
      "##ibig": 2291,
      "pinas": 2292,
      "making": 2293,
      "phvoteduterte": 2294,
      "##yanig": 2295,
      "kanyang": 2296,
      "lies": 2297,
      "everyone": 2298,
      "pwedeng": 2299,
      "????????????": 2300,
      "calls": 2301,
      "seen": 2302,
      "tatakbo": 2303,
      "shows": 2304,
      "conced": 2305,
      "instead": 2306,
      "pamil": 2307,
      "sakin": 2308,
      "mangy": 2309,
      "bumoto": 2310,
      "buong": 2311,
      "##ollow": 2312,
      "switchtomar": 2313,
      "mmk": 2314,
      "cheapen": 2315,
      "cnn": 2316,
      "either": 2317,
      ".[": 2318,
      "16": 2319,
      "24": 2320,
      "ate": 2321,
      "cur": 2322,
      "debates": 2323,
      "et": 2324,
      "gl": 2325,
      "gre": 2326,
      "ho": 2327,
      "hmm": 2328,
      "ig": 2329,
      "kid": 2330,
      "kad": 2331,
      "lim": 2332,
      "lakas": 2333,
      "por": 2334,
      "rad": 2335,
      "rapp": 2336,
      "tuw": 2337,
      "tayong": 2338,
      "##dec": 2339,
      "##ron": 2340,
      "##be": 2341,
      "##her": 2342,
      "##hit": 2343,
      "##nang": 2344,
      "##ien": 2345,
      "##cer": 2346,
      "##cial": 2347,
      "##cted": 2348,
      "##zon": 2349,
      "##zar": 2350,
      "##alabas": 2351,
      "##akad": 2352,
      "##ato": 2353,
      "##ots": 2354,
      "hah": 2355,
      "paid": 2356,
      "##elas": 2357,
      "bear": 2358,
      "##ahon": 2359,
      "pags": 2360,
      "##ampanya": 2361,
      "sinabi": 2362,
      "talks": 2363,
      "##itiko": 2364,
      "onlybinaym": 2365,
      "pinap": 2366,
      "moral": 2367,
      "update": 2368,
      "makak": 2369,
      "allan": 2370,
      "##ief": 2371,
      "supporting": 2372,
      "secret": 2373,
      "##pagyanig": 2374,
      "lagi": 2375,
      "charges": 2376,
      "##anggap": 2377,
      "tanong": 2378,
      "problem": 2379,
      "slate": 2380,
      "things": 2381,
      "invest": 2382,
      "nakakatakot": 2383,
      "psypagyanig": 2384,
      "claims": 2385,
      "citizenship": 2386,
      "sandro": 2387,
      "marunong": 2388,
      "rappler": 2389,
      "cor": 2390,
      "cle": 2391,
      "dag": 2392,
      "dat": 2393,
      "follow": 2394,
      "game": 2395,
      "hangg": 2396,
      "kil": 2397,
      "kill": 2398,
      "nman": 2399,
      "nina": 2400,
      "pra": 2401,
      "pup": 2402,
      "rul": 2403,
      "sas": 2404,
      "use": 2405,
      "xd": 2406,
      "yon": 2407,
      "##emp": 2408,
      "##rd": 2409,
      "##ste": 2410,
      "##ket": 2411,
      "##als": 2412,
      "##alin": 2413,
      "##tice": 2414,
      "##angduterte": 2415,
      "##angats": 2416,
      "##hah": 2417,
      "##atacloban": 2418,
      "pota": 2419,
      "niyang": 2420,
      "##outh": 2421,
      "inte": 2422,
      "##ade": 2423,
      "isab": 2424,
      "poe2016": 2425,
      "alan": 2426,
      "##rep": 2427,
      "ready": 2428,
      "##old": 2429,
      "##olangduterte": 2430,
      "##ical": 2431,
      "coming": 2432,
      "unl": 2433,
      "sinulog": 2434,
      "prof": 2435,
      "##agaangats": 2436,
      "kasama": 2437,
      "commercials": 2438,
      "social": 2439,
      "##endorse": 2440,
      "done": 2441,
      "##llll": 2442,
      "phvotebinay": 2443,
      "##ments": 2444,
      "natur": 2445,
      "endorse": 2446,
      "bets": 2447,
      "better": 2448,
      "ulo": 2449,
      "##tics": 2450,
      "worst": 2451,
      "world": 2452,
      "criminal": 2453,
      "panay": 2454,
      "paninira": 2455,
      "biglang": 2456,
      "sarap": 2457,
      "mambob": 2458,
      "pray": 2459,
      "calling": 2460,
      "##dez": 2461,
      "loob": 2462,
      "badtrip": 2463,
      "visit": 2464,
      "syste": 2465,
      "kalaban": 2466,
      "mandal": 2467,
      "utak": 2468,
      "appro": 2469,
      "franc": 2470,
      "friend": 2471,
      "obv": 2472,
      "presidentiables": 2473,
      "cases": 2474,
      "magkakar": 2475,
      "remember": 2476,
      "onlybinaymagaangats": 2477,
      "mambobolangduterte": 2478,
      "onlybinaymagaangatsatacloban": 2479,
      "bb": 2480,
      "ban": 2481,
      "bor": 2482,
      "bil": 2483,
      "bit": 2484,
      "baba": 2485,
      "cha": 2486,
      "gon": 2487,
      "gising": 2488,
      "hous": 2489,
      "habang": 2490,
      "jan": 2491,
      "kick": 2492,
      "lun": 2493,
      "mess": 2494,
      "nk": 2495,
      "pcos": 2496,
      "raw": 2497,
      "rich": 2498,
      "sws": 2499,
      "srs": 2500,
      "vc": 2501,
      "wee": 2502,
      "##mual": 2503,
      "##ele": 2504,
      "##tv": 2505,
      "##go": 2506,
      "##cha": 2507,
      "##ced": 2508,
      "##cess": 2509,
      "##ward": 2510,
      "##ints": 2511,
      "##aso": 2512,
      "##ena": 2513,
      "##alk": 2514,
      "##tims": 2515,
      "##eres": 2516,
      "romual": 2517,
      "sira": 2518,
      "##ilan": 2519,
      "##ilit": 2520,
      "##amo": 2521,
      "##ams": 2522,
      "saw": 2523,
      "poss": 2524,
      "point": 2525,
      "##idence": 2526,
      "##awn": 2527,
      "##adan": 2528,
      "##uli": 2529,
      "##ipt": 2530,
      "##andang": 2531,
      "##kod": 2532,
      "repor": 2533,
      "##olo": 2534,
      "##oloko": 2535,
      "hehe": 2536,
      "ass": 2537,
      "shet": 2538,
      "trying": 2539,
      "manny": 2540,
      "unf": 2541,
      "graft": 2542,
      "##act": 2543,
      "##acks": 2544,
      "amb": 2545,
      "goes": 2546,
      "mataas": 2547,
      "##endors": 2548,
      "leg": 2549,
      "plas": 2550,
      "phvotepoe": 2551,
      "natat": 2552,
      "##anta": 2553,
      "hahahahah": 2554,
      "nakakab": 2555,
      "##tain": 2556,
      "surp": 2557,
      "live": 2558,
      "##ugs": 2559,
      "napaka": 2560,
      "##uyong": 2561,
      "sign": 2562,
      "sabihin": 2563,
      "?????????????????": 2564,
      "teach": 2565,
      "cheating": 2566,
      "bash": 2567,
      "imag": 2568,
      "katang": 2569,
      "pass": 2570,
      "##wanag": 2571,
      "pulse": 2572,
      "kampanya": 2573,
      "victims": 2574,
      "latest": 2575,
      "doubt": 2576,
      "batangas": 2577,
      "tanggap": 2578,
      "huwag": 2579,
      "touches": 2580,
      "hanggang": 2581,
      "isabela": 2582,
      "system": 2583,
      "mandaluyong": 2584,
      "francis": 2585,
      "srsly": 2586,
      "romualdez": 2587,
      "15": 2588,
      "bos": 2589,
      "bank": 2590,
      "dq": 2591,
      "emp": 2592,
      "fil": 2593,
      "hits": 2594,
      "hope": 2595,
      "ky": 2596,
      "kaka": 2597,
      "lss": 2598,
      "lanao": 2599,
      "nyang": 2600,
      "pity": 2601,
      "panalo": 2602,
      "rising": 2603,
      "sag": 2604,
      "sing": 2605,
      "set": 2606,
      "ty": 2607,
      "tama": 2608,
      "test": 2609,
      "vow": 2610,
      "wit": 2611,
      "##ding": 2612,
      "##uu": 2613,
      "##ock": 2614,
      "##news": 2615,
      "##kl": 2616,
      "##iy": 2617,
      "##cks": 2618,
      "##vor": 2619,
      "##--": 2620,
      "##zz": 2621,
      "##31": 2622,
      "##asap": 2623,
      "##alaki": 2624,
      "##ties": 2625,
      "naa": 2626,
      "##agay": 2627,
      "silang": 2628,
      "silent": 2629,
      "throw": 2630,
      "##unt": 2631,
      "##uno": 2632,
      "##unod": 2633,
      "##otto": 2634,
      "due": 2635,
      "##ider": 2636,
      "##hahati": 2637,
      "kaysa": 2638,
      "##let": 2639,
      "##omen": 2640,
      "forget": 2641,
      "forever": 2642,
      "##ulungan": 2643,
      "##ently": 2644,
      "rejec": 2645,
      "...\"": 2646,
      "##ook": 2647,
      "magl": 2648,
      "##upo": 2649,
      "nagpap": 2650,
      "itong": 2651,
      "comes": 2652,
      "nognogsin": 2653,
      "americ": 2654,
      "halatang": 2655,
      "elected": 2656,
      "dati": 2657,
      "maj": 2658,
      "mahahati": 2659,
      "play": 2660,
      "##uhin": 2661,
      "disg": 2662,
      "##ffer": 2663,
      "exper": 2664,
      "kanila": 2665,
      "kapal": 2666,
      "scary": 2667,
      "scared": 2668,
      "nangunguna": 2669,
      "usap": 2670,
      "getting": 2671,
      "tularan": 2672,
      "incom": 2673,
      "tatay": 2674,
      "##love": 2675,
      "laging": 2676,
      "cheat": 2677,
      "##hanap": 2678,
      "agree": 2679,
      "wants": 2680,
      "##parin": 2681,
      "pumunta": 2682,
      "karapat": 2683,
      "mrt": 2684,
      "lawy": 2685,
      "lost": 2686,
      "confir": 2687,
      "become": 2688,
      "kulay": 2689,
      "erap": 2690,
      "tlga": 2691,
      "deserve": 2692,
      "bahala": 2693,
      "brigadan": 2694,
      "students": 2695,
      "machine": 2696,
      "notomarroxas": 2697,
      "tigilan": 2698,
      "##amdam": 2699,
      "negative": 2700,
      "dzmmte": 2701,
      "week": 2702,
      "nognogsinunog": 2703,
      "american": 2704,
      "brigadanews": 2705,
      ").": 2706,
      "100": 2707,
      "36": 2708,
      "])": 2709,
      "aw": 2710,
      "av": 2711,
      "baw": 2712,
      "bitch": 2713,
      "crow": 2714,
      "dyn": 2715,
      "fb": 2716,
      "fl": 2717,
      "fans": 2718,
      "imm": 2719,
      "joll": 2720,
      "jail": 2721,
      "lit": 2722,
      "ny": 2723,
      "pbb": 2724,
      "uh": 2725,
      "wo": 2726,
      "war": 2727,
      "ya": 2728,
      "##miriam": 2729,
      "##ution": 2730,
      "##ser": 2731,
      "##pir": 2732,
      "##pons": 2733,
      "##hih": 2734,
      "##if": 2735,
      "##ians": 2736,
      "##gy": 2737,
      "##gi": 2738,
      "##led": 2739,
      "##69": 2740,
      "##inks": 2741,
      "##ayari": 2742,
      "##asar": 2743,
      "##tend": 2744,
      "##alaman": 2745,
      "##anga": 2746,
      "##angat": 2747,
      "analy": 2748,
      "##akam": 2749,
      "##akilocos": 2750,
      "##ility": 2751,
      "##unay": 2752,
      "##ises": 2753,
      "##awala": 2754,
      "ine": 2755,
      "ini": 2756,
      "inis": 2757,
      "##ire": 2758,
      "##irl": 2759,
      "once": 2760,
      "##abakilocos": 2761,
      "##lead": 2762,
      "##leik": 2763,
      "haci": 2764,
      "ating": 2765,
      "kairita": 2766,
      "forum": 2767,
      "##??????": 2768,
      "pah": 2769,
      "##....": 2770,
      "##uth": 2771,
      "##utom": 2772,
      "youth": 2773,
      "##ahala": 2774,
      "magt": 2775,
      "heart": 2776,
      "##eck": 2777,
      "sta": 2778,
      "##ikit": 2779,
      "##ibee": 2780,
      "onlybinaynang": 2781,
      "dep": 2782,
      "matat": 2783,
      "makes": 2784,
      "plat": 2785,
      "winner": 2786,
      "distr": 2787,
      "laugh": 2788,
      "scout": 2789,
      "palace": 2790,
      "##okes": 2791,
      "ngayong": 2792,
      "malaking": 2793,
      "candidacy": 2794,
      "supporter": 2795,
      "count": 2796,
      "##ody": 2797,
      "words": 2798,
      "##iwan": 2799,
      "##wisit": 2800,
      "labanleni": 2801,
      "libre": 2802,
      "pamb": 2803,
      "karen": 2804,
      "minute": 2805,
      "waiting": 2806,
      "visits": 2807,
      "senatorial": 2808,
      "salita": 2809,
      "days": 2810,
      "comple": 2811,
      "losing": 2812,
      "kwent": 2813,
      "higher": 2814,
      "##fully": 2815,
      "kandidatura": 2816,
      "meeting": 2817,
      "gagawin": 2818,
      "##atanong": 2819,
      "##icture": 2820,
      "kingina": 2821,
      "huhu": 2822,
      "##patrol": 2823,
      "takes": 2824,
      "tanimbala": 2825,
      "judge": 2826,
      "court": 2827,
      "apologiz": 2828,
      "receipt": 2829,
      "kuya": 2830,
      "disappo": 2831,
      "omg": 2832,
      "program": 2833,
      "bearer": 2834,
      "housing": 2835,
      "vcm": 2836,
      "##awnaba": 2837,
      "##endorso": 2838,
      "witness": 2839,
      "incompe": 2840,
      "dzmmteleik": 2841,
      "jollibee": 2842,
      "hacienda": 2843,
      "onlybinaynangabakilocos": 2844,
      "dzmmteleikawnaba": 2845,
      "./": 2846,
      "action": 2847,
      "bs": 2848,
      "bri": 2849,
      "cap": 2850,
      "cut": 2851,
      "dal": 2852,
      "dad": 2853,
      "dating": 2854,
      "find": 2855,
      "found": 2856,
      "kel": 2857,
      "low": 2858,
      "lord": 2859,
      "merc": 2860,
      "million": 2861,
      "mouth": 2862,
      "note": 2863,
      "pay": 2864,
      "ru": 2865,
      "rp": 2866,
      "ri": 2867,
      "sor": 2868,
      "sch": 2869,
      "tweet": 2870,
      "tagal": 2871,
      "uman": 2872,
      "vers": 2873,
      "wed": 2874,
      "##men": 2875,
      "##fan": 2876,
      "##filipino": 2877,
      "##bel": 2878,
      "##ior": 2879,
      "##ging": 2880,
      "##less": 2881,
      "##alala": 2882,
      "##alim": 2883,
      "##ara": 2884,
      "##angmatuwid": 2885,
      "roxasna": 2886,
      "##ilig": 2887,
      "##ames": 2888,
      "##amot": 2889,
      "thre": 2890,
      "##unin": 2891,
      "##itin": 2892,
      "ing": 2893,
      "##ungkot": 2894,
      "former": 2895,
      "##usin": 2896,
      "##els": 2897,
      "##kohan": 2898,
      "##race": 2899,
      "rev": 2900,
      "##osh": 2901,
      "diyan": 2902,
      "magka": 2903,
      "##uporta": 2904,
      "shot": 2905,
      "strong": 2906,
      "start": 2907,
      "##sta": 2908,
      "noon": 2909,
      "sinong": 2910,
      "sinasabi": 2911,
      "projec": 2912,
      "##theb": 2913,
      "##itika": 2914,
      "##ibo": 2915,
      "##maine": 2916,
      "within": 2917,
      "matapos": 2918,
      "cant": 2919,
      "##votes": 2920,
      "doc": 2921,
      "##esto": 2922,
      "expec": 2923,
      "politiko": 2924,
      "kapa": 2925,
      "blind": 2926,
      "act": 2927,
      "accept": 2928,
      "evidence": 2929,
      "##ihi": 2930,
      "enr": 2931,
      "crime": 2932,
      "tulong": 2933,
      "hays": 2934,
      "wonder": 2935,
      "##hehe": 2936,
      "labanan": 2937,
      "cause": 2938,
      "umay": 2939,
      "charot": 2940,
      "prev": 2941,
      "talking": 2942,
      "##formed": 2943,
      "everything": 2944,
      "naiirita": 2945,
      "compla": 2946,
      "delay": 2947,
      "push": 2948,
      "masyadong": 2949,
      "##ortahan": 2950,
      "leadership": 2951,
      "kawawa": 2952,
      "happened": 2953,
      "break": 2954,
      "##habol": 2955,
      "politicsph": 2956,
      "budget": 2957,
      "accounts": 2958,
      "opinion": 2959,
      "##holds": 2960,
      "pamilya": 2961,
      "secretary": 2962,
      "natural": 2963,
      "crowd": 2964,
      "./.": 2965,
      "mercado": 2966,
      "!?": 2967,
      "),": 2968,
      ",...": 2969,
      "-...": 2970,
      "21": 2971,
      "4ps": 2972,
      "73": 2973,
      "?!!": 2974,
      "a1": 2975,
      "ball": 2976,
      "burn": 2977,
      "billion": 2978,
      "estr": 2979,
      "fu": 2980,
      "gw": 2981,
      "gamit": 2982,
      "girl": 2983,
      "imb": 2984,
      "ipin": 2985,
      "ilang": 2986,
      "kl": 2987,
      "kup": 2988,
      "kina": 2989,
      "kund": 2990,
      "kurakot": 2991,
      "keep": 2992,
      "list": 2993,
      "might": 2994,
      "mins": 2995,
      "mother": 2996,
      "oy": 2997,
      "pes": 2998,
      "palang": 2999,
      "past": 3000,
      "papa": 3001,
      "rest": 3002,
      "sss": 3003,
      "sotto": 3004,
      "tag": 3005,
      "tim": 3006,
      "vir": 3007,
      "vill": 3008,
      "wish": 3009,
      "##more": 3010,
      "##ew": 3011,
      "##uko": 3012,
      "##bh": 3013,
      "##b1nay": 3014,
      "##not": 3015,
      "##kt": 3016,
      "##iit": 3017,
      "##cayetano": 3018,
      "##wers": 3019,
      "##long": 3020,
      "##14": 3021,
      "##11": 3022,
      "##init": 3023,
      "##inungaling": 3024,
      "##ayad": 3025,
      "##ayos": 3026,
      "binayaran": 3027,
      "##alast": 3028,
      "##tiko": 3029,
      "nad": 3030,
      "rody": 3031,
      "##ories": 3032,
      "##amat": 3033,
      "thr": 3034,
      "tho": 3035,
      "##itter": 3036,
      "##itong": 3037,
      "##ators": 3038,
      "##ists": 3039,
      "dumm": 3040,
      "thefilipino": 3041,
      "isn": 3042,
      "kailan": 3043,
      "##ulit": 3044,
      "##usap": 3045,
      "paolo": 3046,
      "##uta": 3047,
      "##alait": 3048,
      "##reme": 3049,
      "##ilippines": 3050,
      "##ahay": 3051,
      "onlyb1nay": 3052,
      "maganda": 3053,
      "maybe": 3054,
      "pagd": 3055,
      "pagb": 3056,
      "nagp": 3057,
      "nagl": 3058,
      "nagmam": 3059,
      "photo": 3060,
      "votemaine": 3061,
      "trap": 3062,
      "unti": 3063,
      "untv": 3064,
      "##ebe": 3065,
      "halos": 3066,
      "pilipinas2016": 3067,
      "##oph": 3068,
      "nanay": 3069,
      "sense": 3070,
      "puñ": 3071,
      "convin": 3072,
      "##ksary": 3073,
      "matter": 3074,
      "matut": 3075,
      "##ended": 3076,
      "pinaka": 3077,
      "##ukan": 3078,
      "upholds": 3079,
      "plano": 3080,
      "##ght": 3081,
      "resign": 3082,
      "exc": 3083,
      "expect": 3084,
      "##athry": 3085,
      "using": 3086,
      "##philippines": 3087,
      "politicians": 3088,
      "akin": 3089,
      "arg": 3090,
      "letter": 3091,
      "ginamit": 3092,
      "##oduterte": 3093,
      "seems": 3094,
      "ganon": 3095,
      "hayop": 3096,
      "surveys": 3097,
      "prin": 3098,
      "drugs": 3099,
      "dayaangmatuwid": 3100,
      "honest": 3101,
      "patalast": 3102,
      "##intay": 3103,
      "##duc": 3104,
      "needs": 3105,
      "anymore": 3106,
      "sobre": 3107,
      "position": 3108,
      "miss": 3109,
      "administr": 3110,
      "##moves": 3111,
      "early": 3112,
      "##____": 3113,
      "becom": 3114,
      "sunog": 3115,
      "attacks": 3116,
      "hands": 3117,
      "thought": 3118,
      "breaking": 3119,
      "##peto": 3120,
      "dark": 3121,
      "brigada": 3122,
      "##quez": 3123,
      "quezon": 3124,
      "dirty": 3125,
      "##weeksary": 3126,
      "rape": 3127,
      "address": 3128,
      "negro": 3129,
      "strate": 3130,
      "##atras": 3131,
      "remind": 3132,
      "clear": 3133,
      "##repaso": 3134,
      "prayfor": 3135,
      "bbm": 3136,
      "born": 3137,
      "gonna": 3138,
      "possible": 3139,
      "plastic": 3140,
      "imagine": 3141,
      "francisco": 3142,
      "lawyer": 3143,
      "avance": 3144,
      "pbbtheb": 3145,
      "##69fan": 3146,
      "incompetent": 3147,
      "rp69fan": 3148,
      "kundi": 3149,
      "##tikos": 3150,
      "votemainefpp": 3151,
      "untvrepaso": 3152,
      "##athryn": 3153,
      "patalastas": 3154,
      "rp69fanfic": 3155,
      "untvrepaso2015": 3156,
      "'.": 3157,
      "05": 3158,
      "13": 3159,
      "3rd": 3160,
      "ai": 3161,
      "cred": 3162,
      "den": 3163,
      "dri": 3164,
      "ey": 3165,
      "ei": 3166,
      "econ": 3167,
      "effec": 3168,
      "fin": 3169,
      "fre": 3170,
      "gp": 3171,
      "gawa": 3172,
      "hit": 3173,
      "hind": 3174,
      "hnd": 3175,
      "hour": 3176,
      "juan": 3177,
      "kinaya": 3178,
      "lik": 3179,
      "line": 3180,
      "mama": 3181,
      "non": 3182,
      "nun": 3183,
      "nyan": 3184,
      "nitong": 3185,
      "picture": 3186,
      "rally": 3187,
      "tro": 3188,
      "tac": 3189,
      "tbh": 3190,
      "uma": 3191,
      "wr": 3192,
      "went": 3193,
      "wary": 3194,
      "wake": 3195,
      "##my": 3196,
      "##ming": 3197,
      "##mum": 3198,
      "##ey": 3199,
      "##een": 3200,
      "##den": 3201,
      "##dag": 3202,
      "##uod": 3203,
      "##rising": 3204,
      "##tan": 3205,
      "##sis": 3206,
      "##br": 3207,
      "##back": 3208,
      "##book": 3209,
      "##nes": 3210,
      "##kit": 3211,
      "##iv": 3212,
      "##gan": 3213,
      "##vite": 3214,
      "##ining": 3215,
      "##ined": 3216,
      "##inelas": 3217,
      "##ays": 3218,
      "##aster": 3219,
      "##asakit": 3220,
      "##titu": 3221,
      "##agawa": 3222,
      "##orin": 3223,
      "anyone": 3224,
      "roxas2016": 3225,
      "##akab": 3226,
      "##amore": 3227,
      "##ings": 3228,
      "##itor": 3229,
      "points": 3230,
      "##iss": 3231,
      "##isi": 3232,
      "duter": 3233,
      "niyong": 3234,
      "night": 3235,
      "into": 3236,
      "##adtrip": 3237,
      "kayang": 3238,
      "haa": 3239,
      "##eto": 3240,
      "##ether": 3241,
      "##ush": 3242,
      "paulit": 3243,
      "##uture": 3244,
      "ala": 3245,
      "##raid": 3246,
      "##ooo": 3247,
      "health": 3248,
      "##ication": 3249,
      "nagd": 3250,
      "##urado": 3251,
      "asa": 3252,
      "short": 3253,
      "unite": 3254,
      "abi": 3255,
      "amin": 3256,
      "halata": 3257,
      "##thweeksary": 3258,
      "kasinungaling": 3259,
      "##itive": 3260,
      "oras": 3261,
      "sound": 3262,
      "nanin": 3263,
      "##ayaan": 3264,
      "desisyon": 3265,
      "##asty": 3266,
      "level": 3267,
      "mau": 3268,
      "peña": 3269,
      "campaigning": 3270,
      "resibo": 3271,
      "##aliz": 3272,
      "hahahahahahahaha": 3273,
      "hahahahahahahahaha": 3274,
      "kng": 3275,
      "blue": 3276,
      "tsaka": 3277,
      "tsinelas": 3278,
      "yours": 3279,
      "favor": 3280,
      "qualif": 3281,
      "##presidente": 3282,
      "afraid": 3283,
      "##tices": 3284,
      "ikawn": 3285,
      "daangmatuwid": 3286,
      "mahal": 3287,
      "temp": 3288,
      "mamaya": 3289,
      "decide": 3290,
      "señ": 3291,
      "defe": 3292,
      "tumat": 3293,
      "madami": 3294,
      "belo": 3295,
      "below": 3296,
      "tinat": 3297,
      "cavite": 3298,
      "concern": 3299,
      "serv": 3300,
      "bulls": 3301,
      "voter": 3302,
      "pabor": 3303,
      "pabebe": 3304,
      "shame": 3305,
      "narin": 3306,
      "utang": 3307,
      "record": 3308,
      "funds": 3309,
      "kulang": 3310,
      ":))": 3311,
      "target": 3312,
      "endorsing": 3313,
      "deserves": 3314,
      "bahay": 3315,
      "hello": 3316,
      "lalong": 3317,
      "##apangalawa": 3318,
      "disqualified": 3319,
      "dismissed": 3320,
      "simple": 3321,
      "kalokohan": 3322,
      "ninyo": 3323,
      "damn": 3324,
      "toni": 3325,
      "curr": 3326,
      "etc": 3327,
      "hmmm": 3328,
      "radyo": 3329,
      "investors": 3330,
      "approval": 3331,
      "magkakaron": 3332,
      "katangian": 3333,
      "filed": 3334,
      "sagutin": 3335,
      "little": 3336,
      "disappoin": 3337,
      "estrada": 3338,
      "kupal": 3339,
      "thefilipinovotes": 3340,
      "kasinungalingan": 3341,
      "03": 3342,
      "08": 3343,
      "33": 3344,
      "aud": 3345,
      "aten": 3346,
      "ahahaha": 3347,
      "bc": 3348,
      "bwa": 3349,
      "bene": 3350,
      "cer": 3351,
      "dro": 3352,
      "dilaw": 3353,
      "fan": 3354,
      "fall": 3355,
      "future": 3356,
      "gawin": 3357,
      "hi": 3358,
      "har": 3359,
      "ipap": 3360,
      "jk": 3361,
      "jing": 3362,
      "kon": 3363,
      "kala": 3364,
      "kur": 3365,
      "kuk": 3366,
      "lie": 3367,
      "lug": 3368,
      "ms": 3369,
      "mula": 3370,
      "miting": 3371,
      "nu": 3372,
      "nilang": 3373,
      "pn": 3374,
      "paki": 3375,
      "ron": 3376,
      "ring": 3377,
      "red": 3378,
      "sn": 3379,
      "sery": 3380,
      "tre": 3381,
      "uy": 3382,
      "“[": 3383,
      "##mit": 3384,
      "##med": 3385,
      "##mins": 3386,
      "##riam": 3387,
      "##sak": 3388,
      "##bu": 3389,
      "##nalang": 3390,
      "##nakaw": 3391,
      "##iver": 3392,
      "##log": 3393,
      "##informed": 3394,
      "##anap": 3395,
      "##enews": 3396,
      "naw": 3397,
      "##haa": 3398,
      "##hapon": 3399,
      "sim": 3400,
      "##amahan": 3401,
      "##amatay": 3402,
      "thinks": 3403,
      "##unl": 3404,
      "##islove": 3405,
      "##iday": 3406,
      "duterteforpresident": 3407,
      "##outs": 3408,
      "inang": 3409,
      "##rove": 3410,
      "##irinig": 3411,
      "having": 3412,
      "##igan": 3413,
      "##ulan": 3414,
      "##usan": 3415,
      "##utup": 3416,
      "##ream": 3417,
      "reach": 3418,
      "rehab": 3419,
      "##oween": 3420,
      "##ola": 3421,
      "befully": 3422,
      "dict": 3423,
      "differ": 3424,
      "magandang": 3425,
      "pagt": 3426,
      "pagp": 3427,
      "pagg": 3428,
      "hear": 3429,
      "hearing": 3430,
      "##ices": 3431,
      "share": 3432,
      "ayon": 3433,
      "unang": 3434,
      "ama": 3435,
      "since": 3436,
      "prove": 3437,
      "proven": 3438,
      "provin": 3439,
      "kasing": 3440,
      "onlybinayislove": 3441,
      "puti": 3442,
      "putik": 3443,
      "masa": 3444,
      "morning": 3445,
      "destro": 3446,
      "tvpatrol": 3447,
      "tae": 3448,
      "taon": 3449,
      "lear": 3450,
      "doing": 3451,
      "weak": 3452,
      "wealth": 3453,
      "disente": 3454,
      "spent": 3455,
      "spokes": 3456,
      "appe": 3457,
      "blame": 3458,
      "##athe": 3459,
      "likod": 3460,
      "##kaiba": 3461,
      "##ites": 3462,
      "ganito": 3463,
      "##engke": 3464,
      "?????????????": 3465,
      "bring": 3466,
      "decl": 3467,
      "##iraan": 3468,
      "probe": 3469,
      "based": 3470,
      "press": 3471,
      "##hhh": 3472,
      ":(((": 3473,
      "serious": 3474,
      "susunod": 3475,
      "inside": 3476,
      "balita": 3477,
      "justice": 3478,
      "pumapangalawa": 3479,
      "interest": 3480,
      "bully": 3481,
      "##formar": 3482,
      "kinalaman": 3483,
      "minion": 3484,
      "asking": 3485,
      "symp": 3486,
      "syemp": 3487,
      "##crib": 3488,
      "kamukha": 3489,
      "twitter": 3490,
      "consider": 3491,
      "highest": 3492,
      "puso": 3493,
      "appear": 3494,
      "answers": 3495,
      "earli": 3496,
      "sunod": 3497,
      "funny": 3498,
      "30mins": 3499,
      "bwisit": 3500,
      "dayaanmoves": 3501,
      "##lingan": 3502,
      "failed": 3503,
      "apec2015": 3504,
      "kaloka": 3505,
      "##tigil": 3506,
      "pareho": 3507,
      "nangyari": 3508,
      ":/…": 3509,
      "limlingan": 3510,
      "morales": 3511,
      "obviously": 3512,
      "vows": 3513,
      "##iyak": 3514,
      "umano": 3515,
      "enrile": 3516,
      "viral": 3517,
      "dummy": 3518,
      "econom": 3519,
      "hndi": 3520,
      "tactics": 3521,
      "qualified": 3522,
      "benef": 3523,
      "befullyinformed": 3524,
      "syempre": 3525,
      "earlier": 3526,
      "000": 3527,
      "1st": 3528,
      "500": 3529,
      "affec": 3530,
      "bes": 3531,
      "band": 3532,
      "cab": 3533,
      "cop": 3534,
      "coc": 3535,
      "cele": 3536,
      "ding": 3537,
      "dalawa": 3538,
      "educ": 3539,
      "fake": 3540,
      "final": 3541,
      "gen": 3542,
      "hur": 3543,
      "huli": 3544,
      "ide": 3545,
      "jour": 3546,
      "kamay": 3547,
      "kris": 3548,
      "lose": 3549,
      "lying": 3550,
      "mil": 3551,
      "mir": 3552,
      "met": 3553,
      "p1": 3554,
      "pong": 3555,
      "pri": 3556,
      "ramdam": 3557,
      "sk": 3558,
      "sosh": 3559,
      "tawag": 3560,
      "tunay": 3561,
      "ug": 3562,
      "val": 3563,
      "veto": 3564,
      "wel": 3565,
      "ye": 3566,
      "zap": 3567,
      "##ater": 3568,
      "##air": 3569,
      "##mal": 3570,
      "##epal": 3571,
      "##don": 3572,
      "##uct": 3573,
      "##tag": 3574,
      "##talk": 3575,
      "##ping": 3576,
      "##pio": 3577,
      "##pamore": 3578,
      "##yte": 3579,
      "##ni": 3580,
      "##king": 3581,
      "##lic": 3582,
      "##za": 3583,
      "##ayag": 3584,
      "##ense": 3585,
      "##alawang": 3586,
      "##era": 3587,
      "##ilim": 3588,
      "##unayan": 3589,
      "##atuan": 3590,
      "##isten": 3591,
      "##iding": 3592,
      "##ape": 3593,
      "init": 3594,
      "##ading": 3595,
      "online": 3596,
      "isyu": 3597,
      "haters": 3598,
      "attend": 3599,
      "kau": 3600,
      "kahapon": 3601,
      "##ulin": 3602,
      "##ipili": 3603,
      "mode": 3604,
      "remo": 3605,
      "notoduterte": 3606,
      "advis": 3607,
      "pagn": 3608,
      "##uportahan": 3609,
      "heard": 3610,
      "itut": 3611,
      "##urs": 3612,
      "whether": 3613,
      "ash": 3614,
      "manahimik": 3615,
      "chil": 3616,
      "check": 3617,
      "stra": 3618,
      "stress": 3619,
      "stories": 3620,
      "miriamforpresident": 3621,
      "proc": 3622,
      "##ebate2016": 3623,
      "memor": 3624,
      "naninira": 3625,
      "##dsa": 3626,
      "##quit": 3627,
      "masakit": 3628,
      "masasabi": 3629,
      "mata": 3630,
      "##eee": 3631,
      "##eeps": 3632,
      "cancer": 3633,
      "cannot": 3634,
      "describ": 3635,
      "tanginang": 3636,
      "##oodle": 3637,
      "##astos": 3638,
      "leyte": 3639,
      "mai": 3640,
      "phvote2016": 3641,
      "##trine": 3642,
      "##ights": 3643,
      "winning": 3644,
      "dinamay": 3645,
      "names": 3646,
      "kanino": 3647,
      "super": 3648,
      "kapang": 3649,
      "blood": 3650,
      "tss": 3651,
      "##ensya": 3652,
      "nakakalo": 3653,
      "##ized": 3654,
      "used": 3655,
      "knows": 3656,
      "batas": 3657,
      "napapan": 3658,
      "aral": 3659,
      "##ihirap": 3660,
      "fair": 3661,
      "fault": 3662,
      "##ode": 3663,
      "ahe": 3664,
      "word": 3665,
      "worse": 3666,
      "cring": 3667,
      "bigyan": 3668,
      "sigurado": 3669,
      "mamasap": 3670,
      "showing": 3671,
      "wouldn": 3672,
      "anyare": 3673,
      "pinags": 3674,
      "pinagkaiba": 3675,
      "swear": 3676,
      "pasay": 3677,
      "##tttt": 3678,
      "topic": 3679,
      "watching": 3680,
      "visited": 3681,
      "fucking": 3682,
      "impos": 3683,
      "bastos": 3684,
      "govt": 3685,
      "##grity": 3686,
      "constitu": 3687,
      "mapap": 3688,
      "naririnig": 3689,
      "pushaw": 3690,
      "didnt": 3691,
      "owned": 3692,
      "pagkat": 3693,
      "facebook": 3694,
      "regard": 3695,
      "gave": 3696,
      "ginagamit": 3697,
      "cover": 3698,
      "carpio": 3699,
      "farm": 3700,
      "##key": 3701,
      "darna": 3702,
      "laglagbala": 3703,
      "disqualification": 3704,
      "nilalait": 3705,
      "bayangmatuwid": 3706,
      "lando": 3707,
      "##rised": 3708,
      "promises": 3709,
      "iloilo": 3710,
      "polls": 3711,
      "hugot": 3712,
      "continue": 3713,
      "spender": 3714,
      "mangyayari": 3715,
      "tuwing": 3716,
      "ruling": 3717,
      "integrity": 3718,
      "teachers": 3719,
      "testing": 3720,
      "majority": 3721,
      "experience": 3722,
      "woes": 3723,
      "##series": 3724,
      "##leader": 3725,
      "projects": 3726,
      "doctrine": 3727,
      "times": 3728,
      "puñeta": 3729,
      "administrasyon": 3730,
      "##nesday": 3731,
      "bullshit": 3732,
      "##nalangseries": 3733,
      "##unlad": 3734,
      "destroy": 3735,
      "##athetic": 3736,
      "journ": 3737,
      "soshutup": 3738,
      "zapanta": 3739,
      "mamasapano": 3740,
      "17": 3741,
      "14": 3742,
      "53": 3743,
      ":-": 3744,
      ":…": 3745,
      "bw": 3746,
      "bom": 3747,
      "boodle": 3748,
      "cen": 3749,
      "cro": 3750,
      "cre": 3751,
      "cast": 3752,
      "came": 3753,
      "dw": 3754,
      "dinaya": 3755,
      "ep": 3756,
      "ej": 3757,
      "edsa": 3758,
      "fing": 3759,
      "fund": 3760,
      "father": 3761,
      "gg": 3762,
      "ground": 3763,
      "hung": 3764,
      "hab": 3765,
      "hakot": 3766,
      "hiya": 3767,
      "ir": 3768,
      "iwan": 3769,
      "itim": 3770,
      "iisip": 3771,
      "jr": 3772,
      "kame": 3773,
      "kump": 3774,
      "lar": 3775,
      "lul": 3776,
      "lup": 3777,
      "laman": 3778,
      "lone": 3779,
      "lakad": 3780,
      "mu": 3781,
      "mus": 3782,
      "mike": 3783,
      "mura": 3784,
      "nyeta": 3785,
      "pi": 3786,
      "pamp": 3787,
      "pant": 3788,
      "pansin": 3789,
      "rip": 3790,
      "rice": 3791,
      "sour": 3792,
      "twis": 3793,
      "yabang": 3794,
      "##ace": 3795,
      "##mas": 3796,
      "##eo": 3797,
      "##ep": 3798,
      "##ton": 3799,
      "##tang": 3800,
      "##tom": 3801,
      "##tama": 3802,
      "##fu": 3803,
      "##po": 3804,
      "##pan": 3805,
      "##pol": 3806,
      "##biz": 3807,
      "##net": 3808,
      "##now": 3809,
      "##gest": 3810,
      "##can": 3811,
      "##cas": 3812,
      "##cing": 3813,
      "##cent": 3814,
      "##watch": 3815,
      "##lines": 3816,
      "##vision": 3817,
      "##26": 3818,
      "##ño": 3819,
      "##ann": 3820,
      "##anong": 3821,
      "##anood": 3822,
      "##asal": 3823,
      "##alam": 3824,
      "##ality": 3825,
      "##tid": 3826,
      "##tiga": 3827,
      "##arte": 3828,
      "##araya": 3829,
      "##aroxas": 3830,
      "##aroon": 3831,
      "##angco": 3832,
      "##hagi": 3833,
      "##ager": 3834,
      "##ora": 3835,
      "##ored": 3836,
      "##oroxas": 3837,
      "anc": 3838,
      "side": 3839,
      "##akan": 3840,
      "marleni": 3841,
      "##ils": 3842,
      "##ingo": 3843,
      "##unity": 3844,
      "##tered": 3845,
      "du31": 3846,
      "##ident": 3847,
      "took": 3848,
      "tomor": 3849,
      "##awi": 3850,
      "##awak": 3851,
      "##oul": 3852,
      "ind": 3853,
      "##adamay": 3854,
      "##aduterte": 3855,
      "##ird": 3856,
      "##iri": 3857,
      "##ired": 3858,
      "isama": 3859,
      "##abs": 3860,
      "##abing": 3861,
      "##leg": 3862,
      "##ulang": 3863,
      "##ulad": 3864,
      "##usot": 3865,
      "##ately": 3866,
      "alas": 3867,
      "kokey": 3868,
      "reac": 3869,
      "##olition": 3870,
      "beat": 3871,
      ".....": 3872,
      "##umay": 3873,
      "##ahal": 3874,
      "##oods": 3875,
      "magic": 3876,
      "magaling": 3877,
      "pagl": 3878,
      "itin": 3879,
      "nakik": 3880,
      "ayusin": 3881,
      "trip": 3882,
      "truth": 3883,
      "manage": 3884,
      "percent": 3885,
      "und": 3886,
      "uni": 3887,
      "undec": 3888,
      "aml": 3889,
      "##akitang": 3890,
      "##ercito": 3891,
      "##ities": 3892,
      "##ibility": 3893,
      "nanakaw": 3894,
      "contr": 3895,
      "dead": 3896,
      "mass": 3897,
      "without": 3898,
      "ibin": 3899,
      "matulog": 3900,
      "tangin": 3901,
      "##forma": 3902,
      "##ignight": 3903,
      "makapag": 3904,
      "##uhu": 3905,
      "##uhang": 3906,
      "disaster": 3907,
      "##ubul": 3908,
      "natalo": 3909,
      "##ude": 3910,
      "result": 3911,
      "respons": 3912,
      "##aliwanag": 3913,
      "supreme": 3914,
      "kapit": 3915,
      "kapwa": 3916,
      "scam": 3917,
      "dapattama": 3918,
      "##oken": 3919,
      "##athy": 3920,
      "nakakahiya": 3921,
      "nakakaasar": 3922,
      "yourself": 3923,
      "liar": 3924,
      "leads": 3925,
      "##ugot": 3926,
      "aking": 3927,
      "eng": 3928,
      "enti": 3929,
      "thinking": 3930,
      "letse": 3931,
      "ulul": 3932,
      "##cañ": 3933,
      "counting": 3934,
      "##aaa": 3935,
      "panahon": 3936,
      "pwesto": 3937,
      "incre": 3938,
      "called": 3939,
      "palpak": 3940,
      "sees": 3941,
      "defin": 3942,
      "##wiset": 3943,
      "taxi": 3944,
      "belies": 3945,
      "choices": 3946,
      "lumalabas": 3947,
      "wanna": 3948,
      "oppos": 3949,
      "sumagot": 3950,
      "anything": 3951,
      "sobra": 3952,
      "close": 3953,
      "balik": 3954,
      "balota": 3955,
      "justices": 3956,
      "##thephilippines": 3957,
      "karma": 3958,
      "join": 3959,
      "##formiriam": 3960,
      "everytime": 3961,
      "este": 3962,
      "improve": 3963,
      "demolition": 3964,
      "guess": 3965,
      "salamat": 3966,
      "kakamp": 3967,
      "kamust": 3968,
      "kamuka": 3969,
      "bottom": 3970,
      "national": 3971,
      "magsama": 3972,
      "narinig": 3973,
      "smh": 3974,
      "expla": 3975,
      "idol": 3976,
      "idamay": 3977,
      "region": 3978,
      "nandito": 3979,
      "papansin": 3980,
      "suspended": 3981,
      "##velop": 3982,
      "tlaga": 3983,
      "barang": 3984,
      "panoorin": 3985,
      "infra": 3986,
      "simply": 3987,
      "ilocos": 3988,
      "kagag": 3989,
      "gumawa": 3990,
      "headlines": 3991,
      "##coming": 3992,
      "color": 3993,
      "lesser": 3994,
      "malacañ": 3995,
      "conceded": 3996,
      "ign": 3997,
      "kids": 3998,
      "dagdag": 3999,
      "datu": 4000,
      "puppet": 4001,
      "unlike": 4002,
      "chair": 4003,
      "message": 4004,
      "siraan": 4005,
      "natatawa": 4006,
      "surprised": 4007,
      "boss": 4008,
      "confirms": 4009,
      "youthformiriam": 4010,
      "school": 4011,
      "wednesday": 4012,
      "##alimutan": 4013,
      "threat": 4014,
      "gwapo": 4015,
      "minsan": 4016,
      "villar": 4017,
      "through": 4018,
      "until": 4019,
      "becomes": 4020,
      "pbbthebignight": 4021,
      "eiu": 4022,
      "ikawnab": 4023,
      "defeat": 4024,
      "straight": 4025,
      "nakakaloka": 4026,
      "ahead": 4027,
      "constitution": 4028,
      "pushawards": 4029,
      "soshutupnalangseries": 4030,
      "ejercito": 4031,
      "iwanan": 4032,
      "lonely": 4033,
      "source": 4034,
      "tomorrow": 4035,
      "undecided": 4036,
      "\"?": 4037,
      "\",": 4038,
      "\">": 4039,
      "2m": 4040,
      "26": 4041,
      "200": 4042,
      "4th": 4043,
      "56": 4044,
      "66": 4045,
      "88": 4046,
      "93": 4047,
      "=\"": 4048,
      "_bl": 4049,
      "aksyon": 4050,
      "bill": 4051,
      "bina": 4052,
      "benta": 4053,
      "bise": 4054,
      "bibig": 4055,
      "care": 4056,
      "fal": 4057,
      "file": 4058,
      "fool": 4059,
      "foul": 4060,
      "ger": 4061,
      "gim": 4062,
      "gabi": 4063,
      "goods": 4064,
      "hy": 4065,
      "hot": 4066,
      "hold": 4067,
      "iyan": 4068,
      "km": 4069,
      "kc": 4070,
      "lg": 4071,
      "len": 4072,
      "lab": 4073,
      "loc": 4074,
      "loko": 4075,
      "mk": 4076,
      "mac": 4077,
      "nyong": 4078,
      "old": 4079,
      "oily": 4080,
      "pic": 4081,
      "pur": 4082,
      "pathetic": 4083,
      "rum": 4084,
      "rac": 4085,
      "song": 4086,
      "ti": 4087,
      "tur": 4088,
      "toto": 4089,
      "titi": 4090,
      "tamang": 4091,
      "tamb": 4092,
      "women": 4093,
      "##ain": 4094,
      "##may": 4095,
      "##dj": 4096,
      "##tor": 4097,
      "##fm": 4098,
      "##fer": 4099,
      "##fight": 4100,
      "##sh": 4101,
      "##sw": 4102,
      "##ber": 4103,
      "##bid": 4104,
      "##bahay": 4105,
      "##has": 4106,
      "##hid": 4107,
      "##ns": 4108,
      "##kathniel": 4109,
      "##kathryn": 4110,
      "##ier": 4111,
      "##iter": 4112,
      "##iency": 4113,
      "##ground": 4114,
      "##word": 4115,
      "##loy": 4116,
      "##zy": 4117,
      "##//": 4118,
      "##inin": 4119,
      "##ants": 4120,
      "##ayin": 4121,
      "##onood": 4122,
      "##asin": 4123,
      "##asyo": 4124,
      "##tes": 4125,
      "##ale": 4126,
      "##alat": 4127,
      "##along": 4128,
      "##alalan": 4129,
      "##tie": 4130,
      "##tiw": 4131,
      "##tiz": 4132,
      "##tima": 4133,
      "##tick": 4134,
      "nauna": 4135,
      "nahiya": 4136,
      "##agulo": 4137,
      "anu": 4138,
      "anim": 4139,
      "##akyan": 4140,
      "##unan": 4141,
      "##unahan": 4142,
      "sain": 4143,
      "pop": 4144,
      "##istent": 4145,
      "##ott": 4146,
      "##otante": 4147,
      "dut": 4148,
      "dumb": 4149,
      "theleader": 4150,
      "tow": 4151,
      "##hahah": 4152,
      "##oud": 4153,
      "inves": 4154,
      "##room": 4155,
      "##adu": 4156,
      "haven": 4157,
      "atin": 4158,
      "atten": 4159,
      "forward": 4160,
      "##ets": 4161,
      "##igit": 4162,
      "##ular": 4163,
      "##entle": 4164,
      "##ipe": 4165,
      "##ipag": 4166,
      "##usyon": 4167,
      "##usted": 4168,
      "andaming": 4169,
      "##andon": 4170,
      "##eless": 4171,
      "moot": 4172,
      "ref": 4173,
      "rema": 4174,
      "##osing": 4175,
      "notop": 4176,
      "notoroxas": 4177,
      "beg": 4178,
      "##umaga": 4179,
      "die": 4180,
      "##illed": 4181,
      "parti": 4182,
      "mayaman": 4183,
      "pagmum": 4184,
      "nagha": 4185,
      "ituloy": 4186,
      "nakaw": 4187,
      "nakurakot": 4188,
      "##ured": 4189,
      "bahagi": 4190,
      "aspir": 4191,
      "shir": 4192,
      "ayun": 4193,
      "try": 4194,
      "trump": 4195,
      "chos": 4196,
      "stay": 4197,
      "station": 4198,
      "abaya": 4199,
      "abutin": 4200,
      "##acter": 4201,
      "among": 4202,
      "nov": 4203,
      "sinas": 4204,
      "proper": 4205,
      "probab": 4206,
      "##!!!": 4207,
      "##again": 4208,
      "##thenews": 4209,
      "##tsa": 4210,
      "member": 4211,
      "conn": 4212,
      "contro": 4213,
      "condon": 4214,
      "death": 4215,
      "##laim": 4216,
      "paraña": 4217,
      "pilipinasdebate2016": 4218,
      "##uwi": 4219,
      "pinakam": 4220,
      "tv5": 4221,
      "taas": 4222,
      "areas": 4223,
      "lea": 4224,
      "left": 4225,
      "doon": 4226,
      "amputa": 4227,
      "##rice": 4228,
      "makikita": 4229,
      "wew": 4230,
      "plot": 4231,
      "plans": 4232,
      "##apatuloy": 4233,
      "pangako": 4234,
      "news5aksyon": 4235,
      "allow": 4236,
      "natut": 4237,
      "wasn": 4238,
      "kanilang": 4239,
      "spre": 4240,
      "##aliw": 4241,
      "whole": 4242,
      "hahahahahah": 4243,
      "scouts": 4244,
      "battle": 4245,
      "napa": 4246,
      "arri": 4247,
      "artic": 4248,
      "malamang": 4249,
      "malapit": 4250,
      "lets": 4251,
      "ahhh": 4252,
      "crush": 4253,
      "binab": 4254,
      "given": 4255,
      "outr": 4256,
      "##ocus": 4257,
      "mahiya": 4258,
      "mahihirap": 4259,
      "##iwalang": 4260,
      "##iwant": 4261,
      "few": 4262,
      "teka": 4263,
      "##unda": 4264,
      "##ought": 4265,
      "mamatay": 4266,
      "decency": 4267,
      "palasyo": 4268,
      "tumigil": 4269,
      "madaming": 4270,
      "looks": 4271,
      "image": 4272,
      "##00m": 4273,
      ":((": 4274,
      "anyway": 4275,
      "character": 4276,
      "insul": 4277,
      "##para": 4278,
      "balat": 4279,
      "katulad": 4280,
      "nasaan": 4281,
      "##amitin": 4282,
      "pasok": 4283,
      "gustong": 4284,
      "##dition": 4285,
      "minam": 4286,
      "pulitika": 4287,
      "impe": 4288,
      "others": 4289,
      "padin": 4290,
      "##ataan": 4291,
      "##adaan": 4292,
      "psh": 4293,
      "demon": 4294,
      "advertisements": 4295,
      "pababa": 4296,
      "deliver": 4297,
      "invol": 4298,
      "speak": 4299,
      "speaking": 4300,
      "posisyon": 4301,
      "positive": 4302,
      "magsas": 4303,
      "magsalita": 4304,
      "notobinay2016": 4305,
      "powerful": 4306,
      "friday": 4307,
      "gagamitin": 4308,
      "became": 4309,
      "biased": 4310,
      "realtalk": 4311,
      "##ught": 4312,
      "regine": 4313,
      "nakakatawa": 4314,
      "##ambal": 4315,
      "coa": 4316,
      "citizen": 4317,
      "##bye": 4318,
      "30k": 4319,
      "##ances": 4320,
      "barb": 4321,
      "starts": 4322,
      "numbers": 4323,
      "nagsas": 4324,
      "selfish": 4325,
      "##ooooo": 4326,
      "accused": 4327,
      "statements": 4328,
      "suc": 4329,
      "dumating": 4330,
      "dismisses": 4331,
      "ipanalo": 4332,
      "landoph": 4333,
      "relief": 4334,
      "personal": 4335,
      "promise": 4336,
      "steal": 4337,
      "##while": 4338,
      "##ixed": 4339,
      "nakakasawa": 4340,
      "moment": 4341,
      "officials": 4342,
      "halloween": 4343,
      "198": 4344,
      "congr": 4345,
      "##ibigan": 4346,
      "kilala": 4347,
      "panayam": 4348,
      "babae": 4349,
      "unfair": 4350,
      "##zzle": 4351,
      "rejected": 4352,
      "maglaba": 4353,
      "brigadanewsfm": 4354,
      "bawat": 4355,
      "dynasty": 4356,
      "minutes": 4357,
      "bsp": 4358,
      "brian": 4359,
      "capiz": 4360,
      "expected": 4361,
      "complaint": 4362,
      "klase": 4363,
      "pesos": 4364,
      "trapoe": 4365,
      "strateg": 4366,
      "driver": 4367,
      "hours": 4368,
      "tempo": 4369,
      "señeres": 4370,
      "service": 4371,
      "current": 4372,
      "disappointed": 4373,
      "audience": 4374,
      "jingle": 4375,
      "learned": 4376,
      "??????????????": 4377,
      "sympathy": 4378,
      "economic": 4379,
      "celebr": 4380,
      "milyon": 4381,
      "cringe": 4382,
      "center": 4383,
      "twist": 4384,
      "##abscbn": 4385,
      "amlc": 4386,
      "definite": 4387,
      "barangay": 4388,
      "kagaguhan": 4389,
      "malacañang": 4390,
      "\">[": 4391,
      "_blank": 4392,
      "false": 4393,
      "##kathniels": 4394,
      "theleaderiwant": 4395,
      "investiga": 4396,
      "notopoe": 4397,
      "parañaque": 4398,
      "%.": 4399,
      "-.": 4400,
      ".????": 4401,
      "01": 4402,
      "5m": 4403,
      "54": 4404,
      "7m": 4405,
      "814": 4406,
      "],": 4407,
      "ari": 4408,
      "awa": 4409,
      "around": 4410,
      "autom": 4411,
      "bro": 4412,
      "bur": 4413,
      "bib": 4414,
      "cam": 4415,
      "cra": 4416,
      "dala": 4417,
      "eas": 4418,
      "erice": 4419,
      "fish": 4420,
      "gaya": 4421,
      "gome": 4422,
      "grow": 4423,
      "gentle": 4424,
      "hu": 4425,
      "horr": 4426,
      "handa": 4427,
      "ie": 4428,
      "ilag": 4429,
      "ipa": 4430,
      "iisa": 4431,
      "irr": 4432,
      "ju": 4433,
      "jake": 4434,
      "kr": 4435,
      "kp": 4436,
      "kila": 4437,
      "keeps": 4438,
      "lay": 4439,
      "log": 4440,
      "loy": 4441,
      "lma": 4442,
      "layo": 4443,
      "mist": 4444,
      "nay": 4445,
      "nec": 4446,
      "nob": 4447,
      "oi": 4448,
      "pis": 4449,
      "pim": 4450,
      "pina": 4451,
      "pension": 4452,
      "pipili": 4453,
      "pakitang": 4454,
      "saka": 4455,
      "seb": 4456,
      "sug": 4457,
      "sweet": 4458,
      "ten": 4459,
      "tone": 4460,
      "tahimik": 4461,
      "vict": 4462,
      "velas": 4463,
      "wha": 4464,
      "wth": 4465,
      "##atic": 4466,
      "##min": 4467,
      "##mes": 4468,
      "##uz": 4469,
      "##rap": 4470,
      "##fail": 4471,
      "##of": 4472,
      "##ove": 4473,
      "##pl": 4474,
      "##pill": 4475,
      "##pend": 4476,
      "##pers": 4477,
      "##poc": 4478,
      "##poken": 4479,
      "##ys": 4480,
      "##yal": 4481,
      "##yar": 4482,
      "##you": 4483,
      "##yos": 4484,
      "##year": 4485,
      "##bi": 4486,
      "##hon": 4487,
      "##hare": 4488,
      "##kan": 4489,
      "##ife": 4490,
      "##gag": 4491,
      "##cle": 4492,
      "##coun": 4493,
      "##come": 4494,
      "##with": 4495,
      "##loloko": 4496,
      "##vil": 4497,
      "##js": 4498,
      "##90": 4499,
      "##inet": 4500,
      "##inthephilippines": 4501,
      "##ayas": 4502,
      "##asted": 4503,
      "##asok": 4504,
      "binayparin": 4505,
      "##alino": 4506,
      "##tian": 4507,
      "##aral": 4508,
      "nah": 4509,
      "naia": 4510,
      "##ange": 4511,
      "##angampanya": 4512,
      "##erence": 4513,
      "##aging": 4514,
      "##agsak": 4515,
      "siga": 4516,
      "##aktan": 4517,
      "martial": 4518,
      "maroxas": 4519,
      "three": 4520,
      "##itang": 4521,
      "##isance": 4522,
      "nice": 4523,
      "##aps": 4524,
      "##apor": 4525,
      "##aws": 4526,
      "##awanan": 4527,
      "ngang": 4528,
      "##edom": 4529,
      "dutertecayetano": 4530,
      "##ouse": 4531,
      "indi": 4532,
      "inendorso": 4533,
      "informa": 4534,
      "##road": 4535,
      "##ador": 4536,
      "ishare": 4537,
      "##abot": 4538,
      "##abutan": 4539,
      "atr": 4540,
      "##rest": 4541,
      "##igaw": 4542,
      "##uling": 4543,
      "##uts": 4544,
      "##elves": 4545,
      "alala": 4546,
      "alert": 4547,
      "alien": 4548,
      "moves": 4549,
      "##hataw": 4550,
      "##oso": 4551,
      "##osed": 4552,
      "beast": 4553,
      "##ument": 4554,
      "adv": 4555,
      "dikit": 4556,
      "onlyinthephilippines": 4557,
      "magb": 4558,
      "magag": 4559,
      "magpap": 4560,
      "hey": 4561,
      "viol": 4562,
      "view": 4563,
      "nakal": 4564,
      "compar": 4565,
      "netiz": 4566,
      "phil": 4567,
      "asan": 4568,
      "aspill": 4569,
      "votekathryn": 4570,
      "maniwala": 4571,
      "manager": 4572,
      "manhid": 4573,
      "abandon": 4574,
      "##sto": 4575,
      "##start": 4576,
      "##iktima": 4577,
      "##ampahan": 4578,
      "novote": 4579,
      "notice": 4580,
      "sinampahan": 4581,
      "sanche": 4582,
      "process": 4583,
      "##!!!!": 4584,
      "orig": 4585,
      "senators": 4586,
      "pucha": 4587,
      "develop": 4588,
      "##kspoken": 4589,
      "matalo": 4590,
      "matanda": 4591,
      "##eeee": 4592,
      "pinup": 4593,
      "pinili": 4594,
      "ampatuan": 4595,
      "makap": 4596,
      "makab": 4597,
      "makuk": 4598,
      "makulong": 4599,
      "weare": 4600,
      "pangalan": 4601,
      "lait": 4602,
      "later": 4603,
      "waste": 4604,
      "respon": 4605,
      "respeto": 4606,
      "namatay": 4607,
      "dahilan": 4608,
      "gringo": 4609,
      "##inisi": 4610,
      "goodbye": 4611,
      "suporta": 4612,
      "whoever": 4613,
      "##ardo": 4614,
      "##iation": 4615,
      "nakakap": 4616,
      "nanguna": 4617,
      "event": 4618,
      "##amanzar": 4619,
      "liwanag": 4620,
      "napag": 4621,
      "napap": 4622,
      "arro": 4623,
      "malayo": 4624,
      "maloloko": 4625,
      "enri": 4626,
      "quote": 4627,
      "quick": 4628,
      "pakis": 4629,
      "##babago": 4630,
      "worth": 4631,
      "bintang": 4632,
      "##teng": 4633,
      "##tence": 4634,
      "hayn": 4635,
      "text": 4636,
      "decent": 4637,
      "decided": 4638,
      "palengke": 4639,
      "palusot": 4640,
      "tatak": 4641,
      "showed": 4642,
      "baste": 4643,
      "tinawag": 4644,
      "accord": 4645,
      "umatras": 4646,
      "##anggi": 4647,
      "bale": 4648,
      "llamanzar": 4649,
      "fire": 4650,
      "pamam": 4651,
      "prec": 4652,
      "##dren": 4653,
      "putanginang": 4654,
      "sakanya": 4655,
      "backlog": 4656,
      "bulle": 4657,
      "bullet": 4658,
      "magkano": 4659,
      "solusyon": 4660,
      "##umble": 4661,
      "##ataas": 4662,
      "slams": 4663,
      "##saumaga": 4664,
      "compan": 4665,
      "abscbnfail": 4666,
      "looking": 4667,
      "mabuti": 4668,
      "mabuhay": 4669,
      "maputi": 4670,
      "medyo": 4671,
      "mandaya": 4672,
      "##emon": 4673,
      "conference": 4674,
      "facts": 4675,
      "nandaya": 4676,
      "##marroxas": 4677,
      "gobyernong": 4678,
      "coz": 4679,
      "handang": 4680,
      "http": 4681,
      "ilaw": 4682,
      "##yyyy": 4683,
      "kawatan": 4684,
      "err": 4685,
      "endorses": 4686,
      "mmkspoken": 4687,
      "mindanao": 4688,
      "month": 4689,
      "##mamalaki": 4690,
      "nababadtrip": 4691,
      "withdraws": 4692,
      "pinoys": 4693,
      "nagboo": 4694,
      "course": 4695,
      "presidentiable": 4696,
      "apology": 4697,
      "edca": 4698,
      "##adayaan": 4699,
      "respectdj": 4700,
      "##amdaman": 4701,
      "neto": 4702,
      "sinisiraan": 4703,
      "continu": 4704,
      "fears": 4705,
      "samin": 4706,
      "protest": 4707,
      "protect": 4708,
      "conceding": 4709,
      "gloc": 4710,
      "kadiri": 4711,
      "radio": 4712,
      "corpor": 4713,
      "obvious": 4714,
      "##election": 4715,
      "reports": 4716,
      "natatakot": 4717,
      "teacher": 4718,
      "bashed": 4719,
      "##klamo": 4720,
      "naaawa": 4721,
      "disgrace": 4722,
      "360": 4723,
      "pahayag": 4724,
      "matatalo": 4725,
      "platapor": 4726,
      "pambato": 4727,
      "kwento": 4728,
      "apologize": 4729,
      "kelan": 4730,
      "rival": 4731,
      "revilla": 4732,
      "kapatid": 4733,
      "fuente": 4734,
      "imbes": 4735,
      "excuse": 4736,
      "effective": 4737,
      "finally": 4738,
      "naniniwala": 4739,
      "ateneo": 4740,
      "nuisance": 4741,
      "ronal": 4742,
      "seryoso": 4743,
      "spokesman": 4744,
      "benefit": 4745,
      "cabinet": 4746,
      "education": 4747,
      "valid": 4748,
      "welcome": 4749,
      "remove": 4750,
      "adviser": 4751,
      "pagnanalo": 4752,
      "itutuloy": 4753,
      "napapanood": 4754,
      "journal": 4755,
      "##aroxasna": 4756,
      "kapitbahay": 4757,
      "increase": 4758,
      "opposition": 4759,
      "kakampi": 4760,
      "kamusta": 4761,
      "pushawardskathniels": 4762,
      "aksyonsaumaga": 4763,
      "hypoc": 4764,
      "local": 4765,
      "totoong": 4766,
      "sainyo": 4767,
      "condonation": 4768,
      "definitely": 4769,
      "-.-": 4770,
      "automatic": 4771,
      "crazy": 4772,
      "gomez": 4773,
      "irrit": 4774,
      "lmao": 4775,
      "velasquez": 4776,
      "netizens": 4777,
      "aspillaga": 4778,
      "votekathrynfpp": 4779,
      "sanchez": 4780,
      "weareformar": 4781,
      "according": 4782,
      "llamanzares": 4783,
      "mmkspokenword": 4784,
      "([": 4785,
      ".??????": 4786,
      "06": 4787,
      "1mis": 4788,
      "23": 4789,
      "39": 4790,
      "43": 4791,
      "60": 4792,
      "631": 4793,
      ":\"": 4794,
      "=)": 4795,
      "?...": 4796,
      "].": 4797,
      "]'": 4798,
      "_____": 4799,
      "bak": 4800,
      "bra": 4801,
      "bug": 4802,
      "banan": 4803,
      "bkt": 4804,
      "biktima": 4805,
      "cal": 4806,
      "cand": 4807,
      "cub": 4808,
      "cake": 4809,
      "capit": 4810,
      "czar": 4811,
      "dm": 4812,
      "dak": 4813,
      "dot": 4814,
      "dna": 4815,
      "dance": 4816,
      "damay": 4817,
      "dream": 4818,
      "ee": 4819,
      "ef": 4820,
      "ew": 4821,
      "eating": 4822,
      "fy": 4823,
      "fv": 4824,
      "fit": 4825,
      "fed": 4826,
      "fck": 4827,
      "free": 4828,
      "gun": 4829,
      "ganda": 4830,
      "gaming": 4831,
      "gulo": 4832,
      "gamot": 4833,
      "ham": 4834,
      "hol": 4835,
      "hina": 4836,
      "hue": 4837,
      "home": 4838,
      "hih": 4839,
      "harap": 4840,
      "higit": 4841,
      "house": 4842,
      "ill": 4843,
      "idi": 4844,
      "itigil": 4845,
      "jeep": 4846,
      "kind": 4847,
      "kone": 4848,
      "khit": 4849,
      "lac": 4850,
      "luh": 4851,
      "listen": 4852,
      "mg": 4853,
      "maw": 4854,
      "mund": 4855,
      "nn": 4856,
      "nl": 4857,
      "ner": 4858,
      "nine": 4859,
      "ol": 4860,
      "pm": 4861,
      "pg": 4862,
      "p30": 4863,
      "pick": 4864,
      "qc": 4865,
      "rib": 4866,
      "rates": 4867,
      "rises": 4868,
      "samp": 4869,
      "squ": 4870,
      "stick": 4871,
      "tf": 4872,
      "tes": 4873,
      "tit": 4874,
      "tip": 4875,
      "tel": 4876,
      "tita": 4877,
      "tign": 4878,
      "tanda": 4879,
      "tied": 4880,
      "tues": 4881,
      "tuwa": 4882,
      "tired": 4883,
      "ub": 4884,
      "villa": 4885,
      "woo": 4886,
      "worr": 4887,
      "wors": 4888,
      "welf": 4889,
      "|…": 4890,
      "|[": 4891,
      "##most": 4892,
      "##mode": 4893,
      "##dd": 4894,
      "##din": 4895,
      "##uot": 4896,
      "##uga": 4897,
      "##rh": 4898,
      "##reng": 4899,
      "##taka": 4900,
      "##tur": 4901,
      "##tards": 4902,
      "##ster": 4903,
      "##sec": 4904,
      "##ped": 4905,
      "##pac": 4906,
      "##ye": 4907,
      "##yb": 4908,
      "##yvp": 4909,
      "##bay": 4910,
      "##bon": 4911,
      "##bis": 4912,
      "##bff": 4913,
      "##het": 4914,
      "##hue": 4915,
      "##htag": 4916,
      "##ners": 4917,
      "##ki": 4918,
      "##kto": 4919,
      "##knews": 4920,
      "##iyan": 4921,
      "##iiit": 4922,
      "##gg": 4923,
      "##gil": 4924,
      "##cc": 4925,
      "##women": 4926,
      "##lim": 4927,
      "##va": 4928,
      "##viv": 4929,
      "##ze": 4930,
      "##61": 4931,
      "##5mis": 4932,
      "##ayaran": 4933,
      "##asons": 4934,
      "##astian": 4935,
      "##enita": 4936,
      "##alay": 4937,
      "##alty": 4938,
      "##alamang": 4939,
      "##alute": 4940,
      "##tif": 4941,
      "##ering": 4942,
      "##erts": 4943,
      "rob": 4944,
      "round": 4945,
      "##agi": 4946,
      "##esit": 4947,
      "##ested": 4948,
      "##orc": 4949,
      "##oral": 4950,
      "##ords": 4951,
      "ann": 4952,
      "anton": 4953,
      "urged": 4954,
      "market": 4955,
      "##amura": 4956,
      "##unal": 4957,
      "##unch": 4958,
      "saf": 4959,
      "sac": 4960,
      "save": 4961,
      "##terday": 4962,
      "##ter5mis": 4963,
      "##ataka": 4964,
      "##atulong": 4965,
      "##ista": 4966,
      "##iscoming": 4967,
      "nio": 4968,
      "niyan": 4969,
      "niels": 4970,
      "##ido": 4971,
      "##idad": 4972,
      "tour": 4973,
      "tough": 4974,
      "angry": 4975,
      "##aph": 4976,
      "##away": 4977,
      "##edi": 4978,
      "inde": 4979,
      "inthenews": 4980,
      "##ades": 4981,
      "##unga": 4982,
      "##ungurakot": 4983,
      "isalute": 4984,
      "##abayan": 4985,
      "##abayaan": 4986,
      "##ogy": 4987,
      "kaibigan": 4988,
      "fore": 4989,
      "##etaduterte": 4990,
      "##respons": 4991,
      "##ulat": 4992,
      "##ulated": 4993,
      "##used": 4994,
      "##usion": 4995,
      "##utulungan": 4996,
      "along": 4997,
      "##ration": 4998,
      "##races": 4999,
      "##report": 5000,
      "requ": 5001,
      "repe": 5002,
      "reasons": 5003,
      "##manny": 5004,
      "##akain": 5005,
      "##olution": 5006,
      "beyon": 5007,
      ".......": 5008,
      "##ume": 5009,
      "diffic": 5010,
      "##upoe": 5011,
      "##icks": 5012,
      "nagnakaw": 5013,
      "nakapag": 5014,
      "nakupoe": 5015,
      "##ection": 5016,
      "##imula": 5017,
      "##urity": 5018,
      "##aloko": 5019,
      "asawa": 5020,
      "asks": 5021,
      "sho": 5022,
      "shall": 5023,
      "ayos": 5024,
      "trib": 5025,
      "manok": 5026,
      "chose": 5027,
      "chief": 5028,
      "sty": 5029,
      "stage": 5030,
      "##obo": 5031,
      "abt": 5032,
      "abroad": 5033,
      "##story": 5034,
      "noh": 5035,
      "sinus": 5036,
      "sinagot": 5037,
      "propos": 5038,
      "prowomen": 5039,
      "common": 5040,
      "commit": 5041,
      "half": 5042,
      "meant": 5043,
      "##otohan": 5044,
      "ehh": 5045,
      "##ibigay": 5046,
      "nanamang": 5047,
      "nanonood": 5048,
      "senti": 5049,
      "senior": 5050,
      "contra": 5051,
      "condition": 5052,
      "deep": 5053,
      "masaya": 5054,
      "ibig": 5055,
      "matakot": 5056,
      "matanggap": 5057,
      "pinapat": 5058,
      "destin": 5059,
      "##ford": 5060,
      "##fort": 5061,
      "mati": 5062,
      "##ersa": 5063,
      "ampota": 5064,
      "##rite": 5065,
      "##amihan": 5066,
      "plus": 5067,
      "pandaraya": 5068,
      "peter": 5069,
      "peace": 5070,
      "pangasin": 5071,
      "##ession": 5072,
      "##amaan": 5073,
      "newsroom": 5074,
      "alli": 5075,
      "diss": 5076,
      "disc": 5077,
      "laitin": 5078,
      "launch": 5079,
      "nating": 5080,
      "##ount": 5081,
      "##ounce": 5082,
      "resid": 5083,
      "resul": 5084,
      "naming": 5085,
      "hashtag": 5086,
      "grilled": 5087,
      "##ieve": 5088,
      "spo": 5089,
      "suport": 5090,
      "apat": 5091,
      "kapus": 5092,
      "bless": 5093,
      "block": 5094,
      "##ensa": 5095,
      "dapatbinay": 5096,
      "nakakapag": 5097,
      "##oka": 5098,
      "ika": 5099,
      "desperadong": 5100,
      "leniism": 5101,
      "thanks": 5102,
      "maling": 5103,
      "malaki": 5104,
      "quit": 5105,
      "pakana": 5106,
      "supports": 5107,
      "uling": 5108,
      "ahh": 5109,
      "lola": 5110,
      "bobotante": 5111,
      "pwersa": 5112,
      "biggest": 5113,
      "gives": 5114,
      "incl": 5115,
      "feed": 5116,
      "bruh": 5117,
      "brother": 5118,
      "brought": 5119,
      "##ield": 5120,
      "aldub1": 5121,
      "aldubth": 5122,
      "palabas": 5123,
      "tatlong": 5124,
      "laguna": 5125,
      "tumawa": 5126,
      "tumaas": 5127,
      "taxes": 5128,
      "muka": 5129,
      "present": 5130,
      "##hhhh": 5131,
      "##00k": 5132,
      "inaano": 5133,
      "tiniti": 5134,
      "##pecial": 5135,
      "##intindi": 5136,
      "choosing": 5137,
      "yoland": 5138,
      "##duct": 5139,
      "lumaban": 5140,
      "series": 5141,
      "sumus": 5142,
      "umasa": 5143,
      "##hahahah": 5144,
      "insult": 5145,
      "track": 5146,
      "feels": 5147,
      "libreng": 5148,
      "fires": 5149,
      "firms": 5150,
      "pumuti": 5151,
      "swipe": 5152,
      "total": 5153,
      "##ilyong": 5154,
      "sakaling": 5155,
      "background": 5156,
      "kinakab": 5157,
      "mrs": 5158,
      "##range": 5159,
      "visayas": 5160,
      "owning": 5161,
      "busy": 5162,
      "solve": 5163,
      "nakaupo": 5164,
      "bumaba": 5165,
      "##ondo": 5166,
      "##hahahahah": 5167,
      "guest": 5168,
      "guia": 5169,
      "kalim": 5170,
      "yesterday": 5171,
      "loss": 5172,
      "reading": 5173,
      "booed": 5174,
      "conspir": 5175,
      "mapag": 5176,
      "nabib": 5177,
      "itsura": 5178,
      "changes": 5179,
      "changed": 5180,
      "fighting": 5181,
      "biasabscbn": 5182,
      "kabataan": 5183,
      "##utes": 5184,
      "terraces": 5185,
      "pagkaka": 5186,
      "function": 5187,
      "gain": 5188,
      "gaano": 5189,
      "nandun": 5190,
      "nandamay": 5191,
      "##marcos": 5192,
      "##atanim": 5193,
      "hahahha": 5194,
      "maliit": 5195,
      "endorser": 5196,
      "endorsed": 5197,
      "happening": 5198,
      "elenita": 5199,
      "##patuloy": 5200,
      "governance": 5201,
      "jobs": 5202,
      "taken": 5203,
      "##timate": 5204,
      "pagkain": 5205,
      "bohol": 5206,
      "bayad": 5207,
      "bayaran": 5208,
      "queen": 5209,
      "isipin": 5210,
      "nagbigay": 5211,
      "changeiscoming": 5212,
      "nagtatr": 5213,
      "bidding": 5214,
      "!!!!!!": 5215,
      "nakakasira": 5216,
      "nakakasuka": 5217,
      "hugas": 5218,
      "networ": 5219,
      "##pakan": 5220,
      "##words": 5221,
      "##hawhaw": 5222,
      "sinisisi": 5223,
      "criticiz": 5224,
      "##aganap": 5225,
      "disappro": 5226,
      "working": 5227,
      "account": 5228,
      "norte": 5229,
      "opinyon": 5230,
      "retweet": 5231,
      "pamilyang": 5232,
      "mangyari": 5233,
      "mmkina": 5234,
      "greater": 5235,
      "pagsuporta": 5236,
      "rules": 5237,
      "##llllllll": 5238,
      "bilis": 5239,
      "lunetaduterte": 5240,
      "unfit": 5241,
      "surprising": 5242,
      "?????????????????????????": 5243,
      "employ": 5244,
      "single": 5245,
      "bawal": 5246,
      "immedi": 5247,
      "uhm": 5248,
      "warr": 5249,
      "analyst": 5250,
      "analysis": 5251,
      "statis": 5252,
      "platform": 5253,
      "distrust": 5254,
      "actions": 5255,
      "kelangan": 5256,
      "##bella": 5257,
      "ingat": 5258,
      "prevent": 5259,
      "a17": 5260,
      "ipinag": 5261,
      "nagmamal": 5262,
      "convinced": 5263,
      "honestly": 5264,
      "clearly": 5265,
      "prayformanny": 5266,
      "eye": 5267,
      "freedom": 5268,
      "hinding": 5269,
      "writ": 5270,
      "haaay": 5271,
      "bwahahaha": 5272,
      "certain": 5273,
      "kontra": 5274,
      "kukuha": 5275,
      "lugar": 5276,
      "dictators": 5277,
      "paggising": 5278,
      "province": 5279,
      "appeal": 5280,
      "affected": 5281,
      "idea": 5282,
      "mirriam": 5283,
      "yeah": 5284,
      "children": 5285,
      "memorial": 5286,
      "describe": 5287,
      "namesake": 5288,
      "regarding": 5289,
      "bombo": 5290,
      "cross": 5291,
      "castro": 5292,
      "ggv": 5293,
      "pansinin": 5294,
      "##canang": 5295,
      "reaction": 5296,
      "management": 5297,
      "kmjs": 5298,
      "town": 5299,
      "pagmumukha": 5300,
      "naghahanap": 5301,
      "controvers": 5302,
      "impeach": 5303,
      "demonyo": 5304,
      "speaker": 5305,
      "##ambales": 5306,
      "success": 5307,
      "horror": 5308,
      "ieendorse": 5309,
      "juice": 5310,
      "loyal": 5311,
      "nobody": 5312,
      "pipiliin": 5313,
      "sebastian": 5314,
      "novotel": 5315,
      "response": 5316,
      "enriquez": 5317,
      "haynako": 5318,
      "corporate": 5319,
      "fuentebella": 5320,
      "ronaldo": 5321,
      "1mister5mis": 5322,
      "cubao": 5323,
      "dotc": 5324,
      "fyi": 5325,
      "huehue": 5326,
      "nlng": 5327,
      "ribbon": 5328,
      "tignan": 5329,
      "welfare": 5330,
      "##pacquiao": 5331,
      "antonio": 5332,
      "nielsen": 5333,
      "beyond": 5334,
      "pangasinan": 5335,
      "newsroom5": 5336,
      "suportado": 5337,
      "nakakapagtaka": 5338,
      "leniismyvp": 5339,
      "kinakabahan": 5340,
      "lunetadutertecayetano": 5341,
      "prayformannypacquiao": 5342,
      "1mister5misis": 5343,
      "**": 5344,
      ",\"": 5345,
      ",”": 5346,
      ".!": 5347,
      ".#": 5348,
      "04": 5349,
      "32": 5350,
      "4m": 5351,
      "44": 5352,
      "57": 5353,
      "59": 5354,
      "5ps": 5355,
      "700k": 5356,
      "87": 5357,
      "82": 5358,
      "90": 5359,
      "?)": 5360,
      "]…": 5361,
      "]!": 5362,
      "ach": 5363,
      "avo": 5364,
      "auth": 5365,
      "bis": 5366,
      "bol": 5367,
      "buw": 5368,
      "bday": 5369,
      "bco": 5370,
      "bana": 5371,
      "body": 5372,
      "bkit": 5373,
      "baliw": 5374,
      "cri": 5375,
      "catch": 5376,
      "cites": 5377,
      "dy": 5378,
      "dang": 5379,
      "dina": 5380,
      "dadaya": 5381,
      "ek": 5382,
      "est": 5383,
      "eks": 5384,
      "each": 5385,
      "emo": 5386,
      "ebid": 5387,
      "fp": 5388,
      "finis": 5389,
      "ftw": 5390,
      "gig": 5391,
      "gah": 5392,
      "gaga": 5393,
      "ginis": 5394,
      "glob": 5395,
      "gutom": 5396,
      "hus": 5397,
      "hote": 5398,
      "hop": 5399,
      "hike": 5400,
      "hawak": 5401,
      "huling": 5402,
      "humble": 5403,
      "iam": 5404,
      "iyo": 5405,
      "ipal": 5406,
      "iyong": 5407,
      "iron": 5408,
      "jes": 5409,
      "jos": 5410,
      "japan": 5411,
      "ks": 5412,
      "kun": 5413,
      "kuti": 5414,
      "kring": 5415,
      "kada": 5416,
      "kanta": 5417,
      "kuno": 5418,
      "kathryn": 5419,
      "lin": 5420,
      "lap": 5421,
      "link": 5422,
      "lack": 5423,
      "mc": 5424,
      "mot": 5425,
      "mate": 5426,
      "mic": 5427,
      "mawala": 5428,
      "nha": 5429,
      "noo": 5430,
      "oop": 5431,
      "ops": 5432,
      "owe": 5433,
      "oli": 5434,
      "p5": 5435,
      "pen": 5436,
      "pet": 5437,
      "pondo": 5438,
      "rid": 5439,
      "ryan": 5440,
      "sent": 5441,
      "sell": 5442,
      "sult": 5443,
      "samb": 5444,
      "tito": 5445,
      "taking": 5446,
      "tiwala": 5447,
      "ulet": 5448,
      "vat": 5449,
      "vol": 5450,
      "wang": 5451,
      "wife": 5452,
      "xa": 5453,
      "yf": 5454,
      "yn": 5455,
      "yaman": 5456,
      "yuck": 5457,
      "yrs": 5458,
      "zero": 5459,
      "##az": 5460,
      "##aur": 5461,
      "##aters": 5462,
      "##mi": 5463,
      "##mang": 5464,
      "##eel": 5465,
      "##ued": 5466,
      "##ures": 5467,
      "##rig": 5468,
      "##rama": 5469,
      "##ramahan": 5470,
      "##tong": 5471,
      "##tayo": 5472,
      "##tled": 5473,
      "##fo": 5474,
      "##sf": 5475,
      "##sle": 5476,
      "##set": 5477,
      "##sible": 5478,
      "##pro": 5479,
      "##plan": 5480,
      "##pdec": 5481,
      "##bp": 5482,
      "##bc": 5483,
      "##bul": 5484,
      "##bayan": 5485,
      "##hong": 5486,
      "##hood": 5487,
      "##here": 5488,
      "##hali": 5489,
      "##nom": 5490,
      "##nel": 5491,
      "##noc": 5492,
      "##kap": 5493,
      "##kward": 5494,
      "##iyang": 5495,
      "##ift": 5496,
      "##gency": 5497,
      "##cil": 5498,
      "##cts": 5499,
      "##wood": 5500,
      "##lu": 5501,
      "##lama": 5502,
      "##lalaban": 5503,
      "##vid": 5504,
      "##vile": 5505,
      "##ju": 5506,
      "##xic": 5507,
      "##zambales": 5508,
      "##4poe": 5509,
      "##24": 5510,
      "##25": 5511,
      "##2miriam": 5512,
      "##ñas": 5513,
      "##5words": 5514,
      "##inas": 5515,
      "##inally": 5516,
      "##in5words": 5517,
      "##anib": 5518,
      "##ony": 5519,
      "##ones": 5520,
      "##onaroxasna": 5521,
      "##asas": 5522,
      "##ased": 5523,
      "##asahan": 5524,
      "##asura": 5525,
      "##tever": 5526,
      "##test": 5527,
      "binayad": 5528,
      "binayepal": 5529,
      "##ented": 5530,
      "##alas": 5531,
      "##alag": 5532,
      "##alma": 5533,
      "##alapit": 5534,
      "##alungkot": 5535,
      "##alerts": 5536,
      "##tir": 5537,
      "##tives": 5538,
      "##ares": 5539,
      "##arily": 5540,
      "##arawan": 5541,
      "nait": 5542,
      "naisip": 5543,
      "nahih": 5544,
      "##erre": 5545,
      "##erna": 5546,
      "##hati": 5547,
      "##happ": 5548,
      "##agin": 5549,
      "##aged": 5550,
      "##agong": 5551,
      "anche": 5552,
      "roxasquit": 5553,
      "six": 5554,
      "##akin": 5555,
      "##akampanya": 5556,
      "##ilar": 5557,
      "##ingi": 5558,
      "##inggan": 5559,
      "sats": 5560,
      "safe": 5561,
      "sapak": 5562,
      "satur": 5563,
      "##teral": 5564,
      "##atayo": 5565,
      "pope": 5566,
      "##isado": 5567,
      "##isahan": 5568,
      "##isyal": 5569,
      "dulo": 5570,
      "dude": 5571,
      "dugo": 5572,
      "tolent": 5573,
      "angel": 5574,
      "##oup": 5575,
      "inst": 5576,
      "inyong": 5577,
      "innoc": 5578,
      "##adyo": 5579,
      "##adstart": 5580,
      "##iram": 5581,
      "##ircle": 5582,
      "##ungin": 5583,
      "##abag": 5584,
      "##abalik": 5585,
      "##abihan": 5586,
      "##ogan": 5587,
      "##cebu": 5588,
      "##lywood": 5589,
      "##least": 5590,
      "haay": 5591,
      "hater": 5592,
      "atat": 5593,
      "atleast": 5594,
      "kaumay": 5595,
      "katiw": 5596,
      "form": 5597,
      "forcing": 5598,
      "##etang": 5599,
      "##igail": 5600,
      "##ulak": 5601,
      "##ulot": 5602,
      "##ully": 5603,
      "##ulungkot": 5604,
      "##ipilit": 5605,
      "##uses": 5606,
      "pain": 5607,
      "andami": 5608,
      "##anding": 5609,
      "##utri": 5610,
      "alcas": 5611,
      "almost": 5612,
      "moder": 5613,
      "rele": 5614,
      "reiter": 5615,
      "##mana": 5616,
      "##umps": 5617,
      "##umpara": 5618,
      "diyos": 5619,
      "##ahiya": 5620,
      "paratang": 5621,
      "magd": 5622,
      "magagawa": 5623,
      "magbabago": 5624,
      "mayonaroxasna": 5625,
      "##ups": 5626,
      "##uplb": 5627,
      "heck": 5628,
      "##ics": 5629,
      "nagi": 5630,
      "##ect": 5631,
      "##ilipinas": 5632,
      "##imo": 5633,
      "##imin": 5634,
      "##ury": 5635,
      "##uring": 5636,
      "white": 5637,
      "wheel": 5638,
      "phl": 5639,
      "phbiz": 5640,
      "aside": 5641,
      "shared": 5642,
      "tri": 5643,
      "trad": 5644,
      "tried": 5645,
      "trash": 5646,
      "manan": 5647,
      "manira": 5648,
      "perfor": 5649,
      "perpet": 5650,
      "chill": 5651,
      "united": 5652,
      "stood": 5653,
      "##obrig": 5654,
      "abot": 5655,
      "abigail": 5656,
      "##ialam": 5657,
      "???????": 5658,
      "##ikon": 5659,
      "##ikat": 5660,
      "amend": 5661,
      "noong": 5662,
      "sanang": 5663,
      "props": 5664,
      "##alanin": 5665,
      "##ination": 5666,
      "onlybinayhataw": 5667,
      "onlybinayzambales": 5668,
      "pure": 5669,
      "##itation": 5670,
      "depar": 5671,
      "ibahin": 5672,
      "matalino": 5673,
      "##uwe": 5674,
      "pinal": 5675,
      "pinipilit": 5676,
      "destr": 5677,
      "taena": 5678,
      "tangna": 5679,
      "##ukhang": 5680,
      "##llig": 5681,
      "daily": 5682,
      "daugh": 5683,
      "maawa": 5684,
      "mainit": 5685,
      "makat": 5686,
      "makaka": 5687,
      "makik": 5688,
      "makapan": 5689,
      "weird": 5690,
      "plac": 5691,
      "##ionmm": 5692,
      "pangarap": 5693,
      "##uhuhu": 5694,
      "newsreport": 5695,
      "##yante": 5696,
      "disp": 5697,
      "dishon": 5698,
      "launder": 5699,
      "##ublic": 5700,
      "nata": 5701,
      "natawa": 5702,
      "##anto": 5703,
      "##antay": 5704,
      "##antly": 5705,
      "##antanan": 5706,
      "hasn": 5707,
      "hassle": 5708,
      "justin": 5709,
      "jejemon": 5710,
      "except": 5711,
      "exact": 5712,
      "bye": 5713,
      "grab": 5714,
      "grand": 5715,
      "gradu": 5716,
      "kanin": 5717,
      "spec": 5718,
      "##alian": 5719,
      "##aliit": 5720,
      "hahaa": 5721,
      "appar": 5722,
      "##arda": 5723,
      "blah": 5724,
      "blaming": 5725,
      "acting": 5726,
      "nakakalungkot": 5727,
      "##okong": 5728,
      "putting": 5729,
      "liars": 5730,
      "desperation": 5731,
      "politically": 5732,
      "politician": 5733,
      "##ugg": 5734,
      "##ugan": 5735,
      "however": 5736,
      "nilait": 5737,
      "known": 5738,
      "akus": 5739,
      "napapa": 5740,
      "napansin": 5741,
      "napanood": 5742,
      "arte": 5743,
      "arti": 5744,
      "arrest": 5745,
      "malab": 5746,
      "malasakit": 5747,
      "encoun": 5748,
      "faith": 5749,
      "quich": 5750,
      "security": 5751,
      "council": 5752,
      "junk": 5753,
      "junks": 5754,
      "##aaah": 5755,
      "cruz": 5756,
      "##veyou": 5757,
      "bigsw": 5758,
      "sariling": 5759,
      "sabay": 5760,
      "##iwanan": 5761,
      "brad": 5762,
      "mamili": 5763,
      "mamamatay": 5764,
      "aldub14": 5765,
      "print": 5766,
      "drag": 5767,
      "draws": 5768,
      "palagi": 5769,
      "runs": 5770,
      "sea": 5771,
      "defic": 5772,
      "##loves": 5773,
      "##wise": 5774,
      "cheated": 5775,
      "madam": 5776,
      "probins": 5777,
      "?!?": 5778,
      "baso": 5779,
      "basic": 5780,
      "basura": 5781,
      "mukang": 5782,
      "imo": 5783,
      "patay": 5784,
      "patas": 5785,
      "patrol": 5786,
      "tinut": 5787,
      "tinanong": 5788,
      "option": 5789,
      "opisyal": 5790,
      "serbis": 5791,
      "susuko": 5792,
      "susuportahan": 5793,
      "sumpa": 5794,
      "sumuporta": 5795,
      "umaga": 5796,
      "##bled": 5797,
      "charge": 5798,
      "stands": 5799,
      "##parency": 5800,
      "##itsuplb": 5801,
      "jusme": 5802,
      "katotohan": 5803,
      "pinagt": 5804,
      "pinagmamalaki": 5805,
      "firm": 5806,
      "pumang": 5807,
      "interior": 5808,
      "prepar": 5809,
      "talkph": 5810,
      "problems": 5811,
      "karamihan": 5812,
      "backf": 5813,
      "bulok": 5814,
      "kinab": 5815,
      "minus": 5816,
      "##itch2miriam": 5817,
      "##entel": 5818,
      "especial": 5819,
      "pull": 5820,
      "pulitiko": 5821,
      "solution": 5822,
      "korte": 5823,
      "....\"": 5824,
      "slogan": 5825,
      "voice": 5826,
      "##sacebu": 5827,
      "guro": 5828,
      "kampante": 5829,
      "kakul": 5830,
      "twiiit": 5831,
      "##paper": 5832,
      "thingy": 5833,
      "loser": 5834,
      "shade": 5835,
      "inviting": 5836,
      "mabagal": 5837,
      "consistent": 5838,
      "utter": 5839,
      "##views": 5840,
      "recto": 5841,
      "kandidatong": 5842,
      "nabub": 5843,
      "nabasa": 5844,
      "repres": 5845,
      "reput": 5846,
      "repost": 5847,
      "confused": 5848,
      "gaganda": 5849,
      "exposed": 5850,
      "idk": 5851,
      "##veness": 5852,
      "regis": 5853,
      "nakakatuwa": 5854,
      "ilong": 5855,
      "nalulungkot": 5856,
      "tarpa": 5857,
      "nakuha": 5858,
      "doesnt": 5859,
      "else": 5860,
      "nasunog": 5861,
      "roro2016": 5862,
      "darating": 5863,
      "humarap": 5864,
      "selfie": 5865,
      "disqualify": 5866,
      "accuses": 5867,
      "accusations": 5868,
      "suit": 5869,
      "sona": 5870,
      "meanwhile": 5871,
      "businessmen": 5872,
      "longer": 5873,
      "monday": 5874,
      "nababasa": 5875,
      "sister": 5876,
      "influ": 5877,
      "onlybinayunasas": 5878,
      "airing": 5879,
      "airport": 5880,
      "ipagp": 5881,
      "ipagpatuloy": 5882,
      "sandigan": 5883,
      "subukan": 5884,
      "submit": 5885,
      "##weeted": 5886,
      "nagtatanong": 5887,
      "promised": 5888,
      "evils": 5889,
      "kagaya": 5890,
      "turned": 5891,
      "##rrrr": 5892,
      "##where": 5893,
      "##aaaaa": 5894,
      "mommy": 5895,
      "ninakaw": 5896,
      "nangyare": 5897,
      "nangyayari": 5898,
      "criticism": 5899,
      "budol": 5900,
      "damage": 5901,
      "luis": 5902,
      "transparency": 5903,
      "malacanang": 5904,
      "return": 5905,
      "retweeted": 5906,
      "samant": 5907,
      "great": 5908,
      "porket": 5909,
      "tuwang": 5910,
      "hahhahaha": 5911,
      "pinapakita": 5912,
      "clean": 5913,
      "dagup": 5914,
      "followed": 5915,
      "kilalanin": 5916,
      "praises": 5917,
      "intellig": 5918,
      "profession": 5919,
      "criminality": 5920,
      "magkakaroon": 5921,
      "lunch": 5922,
      "nkkl": 5923,
      "ambition": 5924,
      "hahahahahhaha": 5925,
      "nakakabwisit": 5926,
      "boses": 5927,
      "type": 5928,
      "throwing": 5929,
      "maglalaban": 5930,
      "]):": 5931,
      "aware": 5932,
      "awkward": 5933,
      "flash": 5934,
      "staff": 5935,
      "##ikitang": 5936,
      "complex": 5937,
      "kwentang": 5938,
      "apologizes": 5939,
      "rule": 5940,
      "sortie": 5941,
      "tweets": 5942,
      "versus": 5943,
      "##hehehe": 5944,
      "pushes": 5945,
      "73rd": 5946,
      "billions": 5947,
      "gamitin": 5948,
      "restaur": 5949,
      "onlyb1nayangat": 5950,
      "onlyb1naypresidente": 5951,
      "pagdating": 5952,
      "naglal": 5953,
      "##ophalalan": 5954,
      "convince": 5955,
      "argument": 5956,
      "strategy": 5957,
      "credit": 5958,
      "deny": 5959,
      "effect": 5960,
      "gpl": 5961,
      "juanvote": 5962,
      "liked": 5963,
      "mauuto": 5964,
      "##alize": 5965,
      "##presidenteko": 5966,
      "tinatawag": 5967,
      "concerns": 5968,
      "redu": 5969,
      "simula": 5970,
      ":(((((": 5971,
      "minions": 5972,
      "hurt": 5973,
      "metro": 5974,
      "##ucture": 5975,
      "proclaim": 5976,
      "impossible": 5977,
      "pagkatapos": 5978,
      "created": 5979,
      "dwiz": 5980,
      "epic": 5981,
      "finger": 5982,
      "habol": 5983,
      "pampanga": 5984,
      "##fuer": 5985,
      "##legal": 5986,
      "percentage": 5987,
      "uniform": 5988,
      "nanakawan": 5989,
      "responsibility": 5990,
      "entire": 5991,
      "explain": 5992,
      "882": 5993,
      "gimme": 5994,
      "lenionmm": 5995,
      "rumors": 5996,
      "racist": 5997,
      "turning": 5998,
      "titigil": 5999,
      "##ierda": 6000,
      "attention": 6001,
      "remains": 6002,
      "partido": 6003,
      "aspirant": 6004,
      "shirt": 6005,
      "natutuwa": 6006,
      "spreading": 6007,
      "arrives": 6008,
      "article": 6009,
      "outrage": 6010,
      "minamahal": 6011,
      "congrat": 6012,
      "investigation": 6013,
      "fishy": 6014,
      "kpophalalan": 6015,
      "necess": 6016,
      "pimentel": 6017,
      "victory": 6018,
      "whatever": 6019,
      "##yarihan": 6020,
      "##ville": 6021,
      "information": 6022,
      "abandoned": 6023,
      "pamamahala": 6024,
      "bulletin": 6025,
      "company": 6026,
      "respectdjpdec": 6027,
      "plataporma": 6028,
      "rivals": 6029,
      "imbestig": 6030,
      "capital": 6031,
      "fvck": 6032,
      "hollywood": 6033,
      "idiot": 6034,
      "koneknews": 6035,
      "lacierda": 6036,
      "mundo": 6037,
      "tuesday": 6038,
      "villafuer": 6039,
      "worried": 6040,
      "worsen": 6041,
      "##responsible": 6042,
      "difficult": 6043,
      "dissent": 6044,
      "resulta": 6045,
      "kapusobrig": 6046,
      "yolandaph": 6047,
      "kalimutan": 6048,
      "conspiracy": 6049,
      "nagtatrabaho": 6050,
      "network": 6051,
      "disapproval": 6052,
      "immediately": 6053,
      "warrant": 6054,
      "written": 6055,
      "dictatorship": 6056,
      "kmjs11": 6057,
      "welfareville": 6058,
      "bcoz": 6059,
      "banaue": 6060,
      "ebidensya": 6061,
      "fpj": 6062,
      "finish": 6063,
      "global": 6064,
      "kutis": 6065,
      "sultan": 6066,
      "sambayan": 6067,
      "yfsf": 6068,
      "##happyb": 6069,
      "ancheadstart": 6070,
      "roxasquitnow": 6071,
      "satsat": 6072,
      "saturday": 6073,
      "tolentino": 6074,
      "innocent": 6075,
      "alcasid": 6076,
      "reiterates": 6077,
      "phbizcon": 6078,
      "onlybinayhatawsacebu": 6079,
      "depart": 6080,
      "daughter": 6081,
      "dishonest": 6082,
      "quicho": 6083,
      "bigswitch2miriam": 6084,
      "aldub14thweeksary": 6085,
      "katotohanan": 6086,
      "especially": 6087,
      "tarpaulin": 6088,
      "nkklk": 6089,
      "proclaimed": 6090,
      "lenionmmk": 6091,
      "kpophalalan2016": 6092,
      "respectdjpdecision": 6093,
      "kapusobrigade": 6094,
      "!????": 6095,
      "!...": 6096,
      "\")": 6097,
      "%;": 6098,
      "'-": 6099,
      "':": 6100,
      "(\"": 6101,
      "-'": 6102,
      ".”": 6103,
      ".????????": 6104,
      "00": 6105,
      "09": 6106,
      "1m": 6107,
      "27": 6108,
      "3m": 6109,
      "37": 6110,
      "31": 6111,
      "35": 6112,
      "4p": 6113,
      "41": 6114,
      "45": 6115,
      "50": 6116,
      "52": 6117,
      "51": 6118,
      "6pm": 6119,
      "71": 6120,
      "78": 6121,
      "711": 6122,
      "8m": 6123,
      "990": 6124,
      ":'": 6125,
      "]?": 6126,
      "___": 6127,
      "aa": 6128,
      "aleg": 6129,
      "bh": 6130,
      "baho": 6131,
      "bother": 6132,
      "bgy": 6133,
      "ck": 6134,
      "cya": 6135,
      "card": 6136,
      "cous": 6137,
      "cash": 6138,
      "cost": 6139,
      "circle": 6140,
      "db": 6141,
      "dog": 6142,
      "dra": 6143,
      "dare": 6144,
      "damit": 6145,
      "data": 6146,
      "em": 6147,
      "equ": 6148,
      "eww": 6149,
      "fro": 6150,
      "fra": 6151,
      "fol": 6152,
      "fellow": 6153,
      "fix": 6154,
      "focus": 6155,
      "ge": 6156,
      "gay": 6157,
      "gap": 6158,
      "gaw": 6159,
      "guti": 6160,
      "gord": 6161,
      "gobinay": 6162,
      "gosh": 6163,
      "galawang": 6164,
      "ht": 6165,
      "hag": 6166,
      "hat": 6167,
      "hers": 6168,
      "hok": 6169,
      "huy": 6170,
      "homet": 6171,
      "hire": 6172,
      "hihi": 6173,
      "hayaan": 6174,
      "hanap": 6175,
      "iw": 6176,
      "iv": 6177,
      "iyang": 6178,
      "jay": 6179,
      "jose": 6180,
      "kalang": 6181,
      "kud": 6182,
      "kaban": 6183,
      "lam": 6184,
      "led": 6185,
      "lah": 6186,
      "lito": 6187,
      "luck": 6188,
      "labas": 6189,
      "lels": 6190,
      "md": 6191,
      "mun": 6192,
      "mul": 6193,
      "mel": 6194,
      "mapa": 6195,
      "milyong": 6196,
      "ning": 6197,
      "nka": 6198,
      "none": 6199,
      "ntin": 6200,
      "oa": 6201,
      "oj": 6202,
      "oct": 6203,
      "p2": 6204,
      "p6": 6205,
      "ped": 6206,
      "pig": 6207,
      "pred": 6208,
      "papat": 6209,
      "pie": 6210,
      "pia": 6211,
      "pili": 6212,
      "puna": 6213,
      "pba": 6214,
      "piss": 6215,
      "ran": 6216,
      "ren": 6217,
      "rated": 6218,
      "rights": 6219,
      "rude": 6220,
      "sr": 6221,
      "ss": 6222,
      "sud": 6223,
      "sons": 6224,
      "soooo": 6225,
      "south": 6226,
      "tor": 6227,
      "til": 6228,
      "ting": 6229,
      "tab": 6230,
      "tig": 6231,
      "tindi": 6232,
      "tik": 6233,
      "tapat": 6234,
      "tira": 6235,
      "tech": 6236,
      "uus": 6237,
      "vac": 6238,
      "wom": 6239,
      "web": 6240,
      "wawa": 6241,
      "wla": 6242,
      "west": 6243,
      "wise": 6244,
      "yay": 6245,
      "##mon": 6246,
      "##mag": 6247,
      "##mun": 6248,
      "##mok": 6249,
      "##mous": 6250,
      "##mates": 6251,
      "##malaki": 6252,
      "##ees": 6253,
      "##eñas": 6254,
      "##dot": 6255,
      "##dog": 6256,
      "##dus": 6257,
      "##uman": 6258,
      "##uction": 6259,
      "##uff": 6260,
      "##rast": 6261,
      "##rence": 6262,
      "##rated": 6263,
      "##ructure": 6264,
      "##tory": 6265,
      "##treme": 6266,
      "##fr": 6267,
      "##fixed": 6268,
      "##over": 6269,
      "##off": 6270,
      "##oint": 6271,
      "##sc": 6272,
      "##sion": 6273,
      "##pay": 6274,
      "##pte": 6275,
      "##pit": 6276,
      "##pla": 6277,
      "##pri": 6278,
      "##pare": 6279,
      "##press": 6280,
      "##pond": 6281,
      "##yung": 6282,
      "##ban": 6283,
      "##bing": 6284,
      "##bat": 6285,
      "##bog": 6286,
      "##buy": 6287,
      "##burn": 6288,
      "##buhin": 6289,
      "##hd": 6290,
      "##hn": 6291,
      "##hi": 6292,
      "##har": 6293,
      "##hus": 6294,
      "##no": 6295,
      "##nya": 6296,
      "##nie": 6297,
      "##nota": 6298,
      "##noon": 6299,
      "##nesto": 6300,
      "##nadaan": 6301,
      "##kat": 6302,
      "##ii": 6303,
      "##iko": 6304,
      "##ianes": 6305,
      "##iod": 6306,
      "##iable": 6307,
      "##gas": 6308,
      "##gment": 6309,
      "##cott": 6310,
      "##culated": 6311,
      "##wag": 6312,
      "##wat": 6313,
      "##ware": 6314,
      "##wins": 6315,
      "##lay": 6316,
      "##lon": 6317,
      "##lak": 6318,
      "##lit": 6319,
      "##lat": 6320,
      "##lase": 6321,
      "##leng": 6322,
      "##lola": 6323,
      "##vy": 6324,
      "##vic": 6325,
      "##vib": 6326,
      "##vage": 6327,
      "##vable": 6328,
      "##jk": 6329,
      "##jus": 6330,
      "##joke": 6331,
      "##xx": 6332,
      "##xper": 6333,
      "##71": 6334,
      "##91": 6335,
      "##zen": 6336,
      "##zing": 6337,
      "##20": 6338,
      "##22": 6339,
      "##83": 6340,
      "##))": 6341,
      "##ños": 6342,
      "##inter": 6343,
      "##inaw": 6344,
      "##inion": 6345,
      "##inting": 6346,
      "##ane": 6347,
      "##anay": 6348,
      "##anuod": 6349,
      "##ayang": 6350,
      "##ayaring": 6351,
      "##onimo": 6352,
      "##asing": 6353,
      "##asagot": 6354,
      "##asyong": 6355,
      "##asasabi": 6356,
      "##asties": 6357,
      "##asunda": 6358,
      "##tee": 6359,
      "##tek": 6360,
      "##enang": 6361,
      "##ential": 6362,
      "##enari": 6363,
      "##ald": 6364,
      "##alis": 6365,
      "##alaw": 6366,
      "##aland": 6367,
      "##alaking": 6368,
      "##alata": 6369,
      "##alengke": 6370,
      "##alogy": 6371,
      "##tiver": 6372,
      "##aro": 6373,
      "##aramdam": 6374,
      "##arming": 6375,
      "nauto": 6376,
      "naalala": 6377,
      "naunahan": 6378,
      "##angk": 6379,
      "##angin": 6380,
      "##angal": 6381,
      "##ered": 6382,
      "##erik": 6383,
      "##erous": 6384,
      "##eradyo": 6385,
      "##hawa": 6386,
      "ros": 6387,
      "room": 6388,
      "roots": 6389,
      "rocks": 6390,
      "##ages": 6391,
      "##agad": 6392,
      "##oras": 6393,
      "##ores": 6394,
      "##oreno": 6395,
      "##orsement": 6396,
      "analogy": 6397,
      "sips": 6398,
      "situ": 6399,
      "##akes": 6400,
      "##akong": 6401,
      "##akulong": 6402,
      "marum": 6403,
      "marri": 6404,
      "martin": 6405,
      "marangal": 6406,
      "##ild": 6407,
      "##iled": 6408,
      "##ilito": 6409,
      "##amin": 6410,
      "##amayan": 6411,
      "thou": 6412,
      "thief": 6413,
      "third": 6414,
      "##une": 6415,
      "##unit": 6416,
      "##itan": 6417,
      "sawa": 6418,
      "sapat": 6419,
      "satan": 6420,
      "##atago": 6421,
      "pok": 6422,
      "poten": 6423,
      "##istic": 6424,
      "##isira": 6425,
      "##isimula": 6426,
      "##isnota": 6427,
      "duk": 6428,
      "duriam": 6429,
      "thems": 6430,
      "theft": 6431,
      "nir": 6432,
      "##ida": 6433,
      "##idikit": 6434,
      "told": 6435,
      "tops": 6436,
      "toget": 6437,
      "##awid": 6438,
      "##awalang": 6439,
      "##awasan": 6440,
      "##edec": 6441,
      "dutertemarcos": 6442,
      "dutertepresidenteko": 6443,
      "inu": 6444,
      "inten": 6445,
      "##adly": 6446,
      "##iration": 6447,
      "##irresponsible": 6448,
      "##ungusan": 6449,
      "ong": 6450,
      "ones": 6451,
      "isin": 6452,
      "##abay": 6453,
      "##abar": 6454,
      "##abasa": 6455,
      "##ablo": 6456,
      "##abalita": 6457,
      "##abihin": 6458,
      "##ability": 6459,
      "##cel": 6460,
      "##ceed": 6461,
      "##lelat": 6462,
      "##oming": 6463,
      "##omed": 6464,
      "##omercial": 6465,
      "kaarawan": 6466,
      "##etch": 6467,
      "##etty": 6468,
      "##iga": 6469,
      "##igi": 6470,
      "##igsa": 6471,
      "##ulation": 6472,
      "##uligsa": 6473,
      "##ento": 6474,
      "??\"": 6475,
      "##ipl": 6476,
      "##ipal": 6477,
      "##uso": 6478,
      "##using": 6479,
      "##usahan": 6480,
      "##.....": 6481,
      "##utulong": 6482,
      "##atened": 6483,
      "##elo": 6484,
      "##elito": 6485,
      "alone": 6486,
      "alarming": 6487,
      "mood": 6488,
      "modus": 6489,
      "##rees": 6490,
      "##repor": 6491,
      "langit": 6492,
      "release": 6493,
      "review": 6494,
      "##manap": 6495,
      "##mance": 6496,
      "##manila": 6497,
      "notol": 6498,
      "bea": 6499,
      "beware": 6500,
      "##umaman": 6501,
      "##umuno": 6502,
      "adop": 6503,
      "##veiling": 6504,
      "dick": 6505,
      "divers": 6506,
      "##ahe": 6507,
      "parte": 6508,
      "partic": 6509,
      "partis": 6510,
      "paraly": 6511,
      "magm": 6512,
      "magnakaw": 6513,
      "magmal": 6514,
      "magulang": 6515,
      "pagha": 6516,
      "pagasa": 6517,
      "pagod": 6518,
      "##upak": 6519,
      "##upunta": 6520,
      "heed": 6521,
      "rtc": 6522,
      "nagm": 6523,
      "nagre": 6524,
      "nagmum": 6525,
      "nakap": 6526,
      "nakalimutan": 6527,
      "comb": 6528,
      "compe": 6529,
      "##uran": 6530,
      "##urat": 6531,
      "near": 6532,
      "phot": 6533,
      "phone": 6534,
      "phys": 6535,
      "namana": 6536,
      "bauan": 6537,
      "batikos": 6538,
      "asar": 6539,
      "shock": 6540,
      "ayala": 6541,
      "tru": 6542,
      "trends": 6543,
      "mana": 6544,
      "manin": 6545,
      "perf": 6546,
      "period": 6547,
      "chall": 6548,
      "chuch": 6549,
      "chann": 6550,
      "chances": 6551,
      "unbel": 6552,
      "unveiling": 6553,
      "stfu": 6554,
      "##ober": 6555,
      "able": 6556,
      "above": 6557,
      "thats": 6558,
      "grave": 6559,
      "##ika": 6560,
      "amid": 6561,
      "amerik": 6562,
      "sincer": 6563,
      "tally": 6564,
      "talga": 6565,
      "proof": 6566,
      "comment": 6567,
      "command": 6568,
      "community": 6569,
      "commented": 6570,
      "##check": 6571,
      "##opinion": 6572,
      "kasali": 6573,
      "memb": 6574,
      "mexic": 6575,
      "elect": 6576,
      "nanan": 6577,
      "naninisi": 6578,
      "seny": 6579,
      "senado": 6580,
      "seneres": 6581,
      "onlybinayagain": 6582,
      "onlybinaybff": 6583,
      "conde": 6584,
      "concept": 6585,
      "camps": 6586,
      "deter": 6587,
      "degr": 6588,
      "master": 6589,
      "willing": 6590,
      "matagal": 6591,
      "walangiwanan": 6592,
      "history": 6593,
      "##ndic": 6594,
      "pinak": 6595,
      "pinat": 6596,
      "pinakita": 6597,
      "pinatay": 6598,
      "##ukin": 6599,
      "##uking": 6600,
      "##astress": 6601,
      "upang": 6602,
      "uprising": 6603,
      "##forcer": 6604,
      "dazzle": 6605,
      "main": 6606,
      "maam": 6607,
      "maid": 6608,
      "maip": 6609,
      "maib": 6610,
      "matic": 6611,
      "maayos": 6612,
      "mahati": 6613,
      "whats": 6614,
      "##erspend": 6615,
      "ampaw": 6616,
      "##rier": 6617,
      "##riend": 6618,
      "##riage": 6619,
      "myster": 6620,
      "pangat": 6621,
      "pangulong": 6622,
      "##trabaho": 6623,
      "##ighten": 6624,
      "newspaper": 6625,
      "ngaun": 6626,
      "allies": 6627,
      "disres": 6628,
      "kahihi": 6629,
      "##ueva": 6630,
      "##uding": 6631,
      "##udyante": 6632,
      "mayors": 6633,
      "wash": 6634,
      "##anting": 6635,
      "dahan": 6636,
      "resum": 6637,
      "respond": 6638,
      "namn": 6639,
      "namim": 6640,
      "namigay": 6641,
      "exam": 6642,
      "exch": 6643,
      "exemp": 6644,
      "extreme": 6645,
      "##ievable": 6646,
      "kaniyang": 6647,
      "spin": 6648,
      "suportahan": 6649,
      "police": 6650,
      "apech": 6651,
      "scr": 6652,
      "scale": 6653,
      "scenari": 6654,
      "##itics": 6655,
      "blames": 6656,
      "##mpion": 6657,
      "nakakar": 6658,
      "nakakabe": 6659,
      "##tation": 6660,
      "##taño": 6661,
      "trillianes": 6662,
      "nangg": 6663,
      "nangang": 6664,
      "##iliman": 6665,
      "nakakaumay": 6666,
      "surviv": 6667,
      "##daylola": 6668,
      "usapan": 6669,
      "##arez": 6670,
      "##sada": 6671,
      "lift": 6672,
      "knowing": 6673,
      "batb": 6674,
      "napak": 6675,
      "napeñas": 6676,
      "arrange": 6677,
      "malala": 6678,
      "malakan": 6679,
      "enter": 6680,
      "enem": 6681,
      "envel": 6682,
      "enforcer": 6683,
      "quing": 6684,
      "quite": 6685,
      "uli": 6686,
      "ulik": 6687,
      "ginawang": 6688,
      "##tersweet": 6689,
      "lolo": 6690,
      "seeks": 6691,
      "cris": 6692,
      "panu": 6693,
      "panig": 6694,
      "panic": 6695,
      "panira": 6696,
      "paningin": 6697,
      "tulog": 6698,
      "bagyong": 6699,
      "bagsak": 6700,
      "ganern": 6701,
      "hayup": 6702,
      "bigla": 6703,
      "sarah": 6704,
      "sarcas": 6705,
      "##ocks": 6706,
      "##iwas": 6707,
      "feat": 6708,
      "brgy": 6709,
      "mamlan": 6710,
      "mamalengke": 6711,
      "##fficiency": 6712,
      "aldubthe": 6713,
      "aldubhappyb": 6714,
      "aldubfixed": 6715,
      "pretty": 6716,
      "afternoon": 6717,
      "drink": 6718,
      "palib": 6719,
      "seat": 6720,
      "season": 6721,
      "selec": 6722,
      "septe": 6723,
      "tatlo": 6724,
      "shown": 6725,
      "showtime": 6726,
      "showbiz": 6727,
      "##heard": 6728,
      "##wish": 6729,
      "ohh": 6730,
      "tumulong": 6731,
      "##ucky": 6732,
      "madilim": 6733,
      "##board": 6734,
      "hontiver": 6735,
      "basis": 6736,
      "bashing": 6737,
      "imy": 6738,
      "imho": 6739,
      "patuloy": 6740,
      "patunay": 6741,
      "tinatanong": 6742,
      "##intment": 6743,
      "age": 6744,
      "ago": 6745,
      "caught": 6746,
      "lumad": 6747,
      "opo": 6748,
      "oppress": 6749,
      "serve": 6750,
      "sumama": 6751,
      "sumbong": 6752,
      "##blast": 6753,
      "badder": 6754,
      "punch": 6755,
      "punta": 6756,
      "punto": 6757,
      "##anggit": 6758,
      "insert": 6759,
      "standing": 6760,
      "standards": 6761,
      "okey": 6762,
      "##park": 6763,
      "##langan": 6764,
      "pinaglalaban": 6765,
      "pumalag": 6766,
      "happens": 6767,
      "mds2016": 6768,
      "internet": 6769,
      "interviews": 6770,
      "pasim": 6771,
      "preten": 6772,
      "##palm": 6773,
      "gma7": 6774,
      "backing": 6775,
      "advertis": 6776,
      "advertise": 6777,
      "joins": 6778,
      "##pekto": 6779,
      "dances": 6780,
      "kinak": 6781,
      "kinik": 6782,
      "everywhere": 6783,
      "magkap": 6784,
      "magkaroon": 6785,
      "buset": 6786,
      "##umbins": 6787,
      "bumili": 6788,
      "bumalik": 6789,
      "impact": 6790,
      "slip": 6791,
      "slur": 6792,
      "##hahahahahahahaha": 6793,
      "bangko": 6794,
      "guan": 6795,
      "guil": 6796,
      "syndic": 6797,
      "salary": 6798,
      "kakap": 6799,
      "kaklase": 6800,
      "razzle": 6801,
      "naiim": 6802,
      "compare": 6803,
      "##andidato": 6804,
      "abscbnli": 6805,
      "abscbnnews": 6806,
      "abscbnones": 6807,
      "abscbnirresponsible": 6808,
      "delas": 6809,
      "shake": 6810,
      "shady": 6811,
      "shading": 6812,
      "poses": 6813,
      "magsanib": 6814,
      "highly": 6815,
      "mislead": 6816,
      "mapang": 6817,
      "medical": 6818,
      "records": 6819,
      "recount": 6820,
      "apply": 6821,
      "bukod": 6822,
      "smmanila": 6823,
      "david": 6824,
      "fron": 6825,
      "republic": 6826,
      "confident": 6827,
      "faces": 6828,
      "facing": 6829,
      "helps": 6830,
      "kabila": 6831,
      "kabobo": 6832,
      "sunburn": 6833,
      "explan": 6834,
      "expiration": 6835,
      "127": 6836,
      "terms": 6837,
      "facepalm": 6838,
      "looming": 6839,
      "##pping": 6840,
      "believes": 6841,
      "bongga": 6842,
      "gains": 6843,
      "nandadamay": 6844,
      "papalit": 6845,
      "plain": 6846,
      "videos": 6847,
      "##marriage": 6848,
      "ilabas": 6849,
      "illegal": 6850,
      "suspend": 6851,
      "carrier": 6852,
      "carpark": 6853,
      "couldn": 6854,
      "kawawang": 6855,
      "nalilito": 6856,
      "ppl": 6857,
      "tarp": 6858,
      "hahahhaha": 6859,
      "ernesto": 6860,
      "gotta": 6861,
      "obama": 6862,
      "obser": 6863,
      "publicity": 6864,
      "famili": 6865,
      "huhuhu": 6866,
      "huhuhuhu": 6867,
      "tlg": 6868,
      "##hangad": 6869,
      "barry": 6870,
      "started": 6871,
      "starting": 6872,
      "failure": 6873,
      "----": 6874,
      "##retweet": 6875,
      "lalaki": 6876,
      "pacman": 6877,
      "accusing": 6878,
      "accusers": 6879,
      "##anati": 6880,
      "magpas": 6881,
      "magpapa": 6882,
      "magpaliwanag": 6883,
      "nagkak": 6884,
      "nagkakam": 6885,
      "epalwatch": 6886,
      "judgment": 6887,
      "montaño": 6888,
      "##mamoreno": 6889,
      "nababayaran": 6890,
      "sisihin": 6891,
      "infrast": 6892,
      "dismissal": 6893,
      "helping": 6894,
      "boom": 6895,
      "dilim": 6896,
      "ipagmalaki": 6897,
      "kumak": 6898,
      "kumuk": 6899,
      "reliable": 6900,
      "victim": 6901,
      "personally": 6902,
      "student": 6903,
      "opening": 6904,
      "denied": 6905,
      "machin": 6906,
      "ranking": 6907,
      "##week": 6908,
      "hahahahhaha": 6909,
      "nagtatanim": 6910,
      "gracepoe2016": 6911,
      "iloveyou": 6912,
      "raps": 6913,
      "step": 6914,
      "recei": 6915,
      "double": 6916,
      "huge": 6917,
      "remix": 6918,
      "parehas": 6919,
      "parehong": 6920,
      "headline": 6921,
      "sinisira": 6922,
      "spotted": 6923,
      "hahahahahahahahahaha": 6924,
      "attacking": 6925,
      "kulelat": 6926,
      "tonight": 6927,
      "##strape": 6928,
      "tanggalin": 6929,
      "babala": 6930,
      "congress": 6931,
      "colle": 6932,
      "north": 6933,
      "samahan": 6934,
      "##www": 6935,
      "concedes": 6936,
      "166": 6937,
      "24oras": 6938,
      "etong": 6939,
      "greed": 6940,
      "igles": 6941,
      "kadramahan": 6942,
      "tuwad": 6943,
      "##decis": 6944,
      "##ronutri": 6945,
      "##ienced": 6946,
      "makakat": 6947,
      "corre": 6948,
      "followers": 6949,
      "killing": 6950,
      "sasamahan": 6951,
      "sasabihin": 6952,
      "approves": 6953,
      "bitter": 6954,
      "bittersweet": 6955,
      "babaeng": 6956,
      "champion": 6957,
      "##chair": 6958,
      "sirain": 6959,
      "legal": 6960,
      "legit": 6961,
      "plastik": 6962,
      "??????????????????": 6963,
      "????????????????????": 6964,
      "katangahan": 6965,
      "passeng": 6966,
      "tanggapin": 6967,
      "empow": 6968,
      "sets": 6969,
      "##uuu": 6970,
      "reject": 6971,
      "playing": 6972,
      "disgusted": 6973,
      "scarystory": 6974,
      "karapatang": 6975,
      "confirmed": 6976,
      "363": 6977,
      "dynasties": 6978,
      "##hihirap": 6979,
      "inequ": 6980,
      "distrib": 6981,
      "laughing": 6982,
      "completes": 6983,
      "brion": 6984,
      "dalawang": 6985,
      "foundling": 6986,
      "notes": 6987,
      "sorties": 6988,
      "version": 6989,
      "threatened": 6990,
      "##racepoe": 6991,
      "magkaisa": 6992,
      "project": 6993,
      "expecting": 6994,
      "crimefight": 6995,
      "previous": 6996,
      "delayed": 6997,
      "a16": 6998,
      "baller": 6999,
      "motherhood": 7000,
      "nadaya": 7001,
      "nagpapa": 7002,
      "matutulog": 7003,
      "resigned": 7004,
      "argue": 7005,
      "missed": 7006,
      "becoming": 7007,
      "rapeisnota": 7008,
      "negros": 7009,
      "reminder": 7010,
      "pbbthebig": 7011,
      "denial": 7012,
      "eyes": 7013,
      "likes": 7014,
      "troll": 7015,
      "wrap": 7016,
      "##denly": 7017,
      "##itorial": 7018,
      "##ission": 7019,
      "dutertards": 7020,
      "abias": 7021,
      "naniniwalang": 7022,
      "##alized": 7023,
      "concerned": 7024,
      "currently": 7025,
      "radyopatrol": 7026,
      "disappointing": 7027,
      "droga": 7028,
      "kurap": 7029,
      "kukunin": 7030,
      "ronnie": 7031,
      "nawala": 7032,
      "similar": 7033,
      "different": 7034,
      "pagpapatuloy": 7035,
      "paggamit": 7036,
      "provinces": 7037,
      "spokespers": 7038,
      "appeals": 7039,
      "declare": 7040,
      "interesting": 7041,
      "##formarroxas": 7042,
      "appears": 7043,
      "benefits": 7044,
      "bandila": 7045,
      "copy": 7046,
      "child": 7047,
      "proclama": 7048,
      "maiitim": 7049,
      "maiiwan": 7050,
      "kapangalan": 7051,
      "kapangyarihan": 7052,
      "fairness": 7053,
      "pinagsasabi": 7054,
      "pinagsasasabi": 7055,
      "##tttttttt": 7056,
      "imposible": 7057,
      ":-(": 7058,
      "fingers": 7059,
      "funded": 7060,
      "hunger": 7061,
      "hungry": 7062,
      "irita": 7063,
      "lupa": 7064,
      "pantay": 7065,
      "##politics": 7066,
      "ancalerts": 7067,
      "underspend": 7068,
      "masses": 7069,
      "tanginamo": 7070,
      "entitled": 7071,
      "chairman": 7072,
      "schools": 7073,
      "666": 7074,
      "binatikos": 7075,
      "geronimo": 7076,
      "lokohan": 7077,
      "tiangco": 7078,
      "tambalang": 7079,
      "probably": 7080,
      "probable": 7081,
      "connection": 7082,
      "leaving": 7083,
      "allowed": 7084,
      "involved": 7085,
      "nagsasalita": 7086,
      "strategists": 7087,
      "celebrity": 7088,
      "camera": 7089,
      "growth": 7090,
      "gentlemen": 7091,
      "ilagan": 7092,
      "logic": 7093,
      "mistake": 7094,
      "##with25": 7095,
      "##apsyon": 7096,
      "individ": 7097,
      "atrasan": 7098,
      "magagandang": 7099,
      "compared": 7100,
      "originally": 7101,
      "makabul": 7102,
      "arroyo": 7103,
      "pakisagot": 7104,
      "precin": 7105,
      "months": 7106,
      "continuity": 7107,
      "606": 7108,
      "baket": 7109,
      "bananasunda": 7110,
      "calculated": 7111,
      "dakilang": 7112,
      "federal": 7113,
      "mawawala": 7114,
      "p30k": 7115,
      "title": 7116,
      "teleradyo": 7117,
      "tandaan": 7118,
      "##tify": 7119,
      "robot": 7120,
      "sacri": 7121,
      "indeed": 7122,
      "isalutemarroxas": 7123,
      "foreign": 7124,
      "tribunal": 7125,
      "style": 7126,
      "sinusuportahan": 7127,
      "contracts": 7128,
      "alliance": 7129,
      "##ievements": 7130,
      "aldubthering": 7131,
      "tinitira": 7132,
      "##intindihan": 7133,
      "nagmamalasakit": 7134,
      "successful": 7135,
      "829": 7136,
      "achievements": 7137,
      "authority": 7138,
      "cries": 7139,
      "dinaig": 7140,
      "dadayain": 7141,
      "estudyante": 7142,
      "gahd": 7143,
      "hotel": 7144,
      "ipalabas": 7145,
      "joselito": 7146,
      "lapid": 7147,
      "mcdo": 7148,
      "micronutri": 7149,
      "oliv": 7150,
      "penalty": 7151,
      "selling": 7152,
      "##vileged": 7153,
      "##juangco": 7154,
      "##errez": 7155,
      "sapakin": 7156,
      "katiwalian": 7157,
      "moderator": 7158,
      "wheelchair": 7159,
      "performance": 7160,
      "makapaniwala": 7161,
      "laundering": 7162,
      "nataasan": 7163,
      "exactly": 7164,
      "special": 7165,
      "apparently": 7166,
      "malabong": 7167,
      "encounter": 7168,
      "councilor": 7169,
      "deficiency": 7170,
      "pumangalawa": 7171,
      "backfire": 7172,
      "registered": 7173,
      "ipagpapatuloy": 7174,
      "returns": 7175,
      "reduce": 7176,
      "gimme5": 7177,
      "imbestigasyon": 7178,
      "villafuerte": 7179,
      "dishonesty": 7180,
      "respectdjpdecisionformarroxas": 7181,
      "gutierrez": 7182,
      "gordon": 7183,
      "herself": 7184,
      "hometown": 7185,
      "october": 7186,
      "suddenly": 7187,
      "vacant": 7188,
      "woman": 7189,
      "##vibes": 7190,
      "potential": 7191,
      "themselves": 7192,
      "together": 7193,
      "diversion": 7194,
      "paralysis": 7195,
      "magmalinis": 7196,
      "physical": 7197,
      "challeng": 7198,
      "unbelievable": 7199,
      "sincerity": 7200,
      "members": 7201,
      "electoral": 7202,
      "onlybinayagainstrape": 7203,
      "condemn": 7204,
      "walangiwananmar": 7205,
      "kahihiyan": 7206,
      "apechot": 7207,
      "scenario": 7208,
      "nakakabeast": 7209,
      "survivors": 7210,
      "malakanyang": 7211,
      "envelope": 7212,
      "mamlantsa": 7213,
      "aldubhappybdaylola": 7214,
      "aldubfixedmarriage": 7215,
      "selective": 7216,
      "september": 7217,
      "hontiveros": 7218,
      "abscbnliars": 7219,
      "abscbnonesided": 7220,
      "kabobohan": 7221,
      "explanation": 7222,
      "infrastructure": 7223,
      "scarystoryin5words": 7224,
      "crimefighting": 7225,
      "rapeisnotajoke": 7226,
      "spokesperson": 7227,
      "proclamation": 7228,
      "underspending": 7229,
      "individual": 7230,
      "bananasundae": 7231,
      "!:": 7232,
      "!????????": 7233,
      "!??????": 7234,
      "''": 7235,
      ".,": 7236,
      ".)": 7237,
      ".;": 7238,
      "34": 7239,
      "38": 7240,
      "300": 7241,
      "483": 7242,
      "5s": 7243,
      "55": 7244,
      "5th": 7245,
      "526": 7246,
      "6m": 7247,
      "69": 7248,
      "64": 7249,
      "601": 7250,
      "75": 7251,
      "7pm": 7252,
      "81": 7253,
      "85": 7254,
      ";...": 7255,
      "=(": 7256,
      "?”": 7257,
      "?..": 7258,
      "@#": 7259,
      "aq": 7260,
      "ahaha": 7261,
      "aly": 7262,
      "ale": 7263,
      "aim": 7264,
      "aff": 7265,
      "azar": 7266,
      "aatras": 7267,
      "awhile": 7268,
      "aasahan": 7269,
      "ben": 7270,
      "bam": 7271,
      "bun": 7272,
      "bya": 7273,
      "bic": 7274,
      "bla": 7275,
      "bern": 7276,
      "brace": 7277,
      "bsta": 7278,
      "bpo": 7279,
      "cg": 7280,
      "cue": 7281,
      "caban": 7282,
      "cto": 7283,
      "cory": 7284,
      "core": 7285,
      "cult": 7286,
      "cdo": 7287,
      "cyn": 7288,
      "cups": 7289,
      "dn": 7290,
      "das": 7291,
      "dom": 7292,
      "dos": 7293,
      "dress": 7294,
      "dada": 7295,
      "dpat": 7296,
      "dsw": 7297,
      "danding": 7298,
      "eq": 7299,
      "eat": 7300,
      "eve": 7301,
      "emb": 7302,
      "eff": 7303,
      "eci": 7304,
      "emer": 7305,
      "eendorse": 7306,
      "epekto": 7307,
      "fer": 7308,
      "fes": 7309,
      "fak": 7310,
      "fig": 7311,
      "feb": 7312,
      "food": 7313,
      "flo": 7314,
      "fist": 7315,
      "five": 7316,
      "gd": 7317,
      "gy": 7318,
      "gn": 7319,
      "gar": 7320,
      "gman": 7321,
      "gug": 7322,
      "gather": 7323,
      "garap": 7324,
      "gold": 7325,
      "hk": 7326,
      "hinay": 7327,
      "hid": 7328,
      "hos": 7329,
      "hilaw": 7330,
      "hide": 7331,
      "host": 7332,
      "hilig": 7333,
      "hintay": 7334,
      "hiding": 7335,
      "ia": 7336,
      "iy": 7337,
      "iya": 7338,
      "icy": 7339,
      "icon": 7340,
      "iendorse": 7341,
      "iangat": 7342,
      "iiwan": 7343,
      "iiyak": 7344,
      "jv": 7345,
      "jim": 7346,
      "jump": 7347,
      "jokes": 7348,
      "james": 7349,
      "kitang": 7350,
      "kuts": 7351,
      "kiram": 7352,
      "ly": 7353,
      "lung": 7354,
      "lig": 7355,
      "lind": 7356,
      "lady": 7357,
      "lech": 7358,
      "lamb": 7359,
      "lines": 7360,
      "lider": 7361,
      "loud": 7362,
      "mid": 7363,
      "mig": 7364,
      "mum": 7365,
      "mur": 7366,
      "mall": 7367,
      "mons": 7368,
      "mixed": 7369,
      "mbc": 7370,
      "nes": 7371,
      "nong": 7372,
      "nlang": 7373,
      "nooooo": 7374,
      "nmin": 7375,
      "og": 7376,
      "oper": 7377,
      "oyy": 7378,
      "ple": 7379,
      "pse": 7380,
      "pta": 7381,
      "paba": 7382,
      "pamang": 7383,
      "pakita": 7384,
      "pena": 7385,
      "pilit": 7386,
      "rh": 7387,
      "rat": 7388,
      "rig": 7389,
      "rall": 7390,
      "rise": 7391,
      "sle": 7392,
      "sala": 7393,
      "shat": 7394,
      "salit": 7395,
      "sge": 7396,
      "suka": 7397,
      "sche": 7398,
      "tg": 7399,
      "tis": 7400,
      "ted": 7401,
      "tind": 7402,
      "tamp": 7403,
      "tse": 7404,
      "tub": 7405,
      "tie": 7406,
      "tng": 7407,
      "table": 7408,
      "tick": 7409,
      "tpos": 7410,
      "ust": 7411,
      "ump": 7412,
      "uhaw": 7413,
      "ver": 7414,
      "vip": 7415,
      "vind": 7416,
      "waw": 7417,
      "wakas": 7418,
      "walk": 7419,
      "yong": 7420,
      "yaya": 7421,
      "yest": 7422,
      "yng": 7423,
      "yari": 7424,
      "yata": 7425,
      "zam": 7426,
      "zzz": 7427,
      "##af": 7428,
      "##ax": 7429,
      "##ahabol": 7430,
      "##mak": 7431,
      "##mate": 7432,
      "##mary": 7433,
      "##dal": 7434,
      "##des": 7435,
      "##dor": 7436,
      "##dle": 7437,
      "##ders": 7438,
      "##uing": 7439,
      "##uel": 7440,
      "##ually": 7441,
      "##ukol": 7442,
      "##uunlad": 7443,
      "##rin": 7444,
      "##rate": 7445,
      "##ric": 7446,
      "##rere": 7447,
      "##tas": 7448,
      "##tal": 7449,
      "##tahan": 7450,
      "##tamang": 7451,
      "##tweet": 7452,
      "##tality": 7453,
      "##fa": 7454,
      "##fred": 7455,
      "##fies": 7456,
      "##fuck": 7457,
      "##fli": 7458,
      "##friend": 7459,
      "##oti": 7460,
      "##si": 7461,
      "##san": 7462,
      "##ses": 7463,
      "##sman": 7464,
      "##sup": 7465,
      "##sik": 7466,
      "##site": 7467,
      "##side": 7468,
      "##sery": 7469,
      "##sagot": 7470,
      "##satang": 7471,
      "##pt": 7472,
      "##pas": 7473,
      "##ple": 7474,
      "##pul": 7475,
      "##pose": 7476,
      "##pical": 7477,
      "##pensa": 7478,
      "##pilipinas": 7479,
      "##yna": 7480,
      "##yente": 7481,
      "##yrs": 7482,
      "##ymes": 7483,
      "##bus": 7484,
      "##bos": 7485,
      "##bow": 7486,
      "##boto": 7487,
      "##bayad": 7488,
      "##hirap": 7489,
      "##hear": 7490,
      "##heng": 7491,
      "##haran": 7492,
      "##hugot": 7493,
      "##ne": 7494,
      "##non": 7495,
      "##nation": 7496,
      "##niz": 7497,
      "##nots": 7498,
      "##nurs": 7499,
      "##natayo": 7500,
      "##kay": 7501,
      "##ken": 7502,
      "##kam": 7503,
      "##kaka": 7504,
      "##kungan": 7505,
      "##ient": 7506,
      "##itions": 7507,
      "##ivers": 7508,
      "##iables": 7509,
      "##ific": 7510,
      "##gl": 7511,
      "##gin": 7512,
      "##ger": 7513,
      "##git": 7514,
      "##gga": 7515,
      "##gado": 7516,
      "##chat": 7517,
      "##col": 7518,
      "##cop": 7519,
      "##cede": 7520,
      "##ciation": 7521,
      "##wit": 7522,
      "##wede": 7523,
      "##wari": 7524,
      "##wrap": 7525,
      "##las": 7526,
      "##lik": 7527,
      "##lac": 7528,
      "##light": 7529,
      "##lies": 7530,
      "##lied": 7531,
      "##lish": 7532,
      "##lude": 7533,
      "##lighten": 7534,
      "##vl": 7535,
      "##vit": 7536,
      "##vant": 7537,
      "##vens": 7538,
      "##vation": 7539,
      "##vided": 7540,
      "##ja": 7541,
      "##joy": 7542,
      "##james": 7543,
      "##79": 7544,
      "##zo": 7545,
      "##zed": 7546,
      "##42": 7547,
      "##21": 7548,
      "##2year": 7549,
      "##32": 7550,
      "##6thweeksary": 7551,
      "##ñol": 7552,
      "##inc": 7553,
      "##inta": 7554,
      "##iniit": 7555,
      "##ani": 7556,
      "##ayako": 7557,
      "##inayang": 7558,
      "##asya": 7559,
      "##asts": 7560,
      "##aseng": 7561,
      "##asaktan": 7562,
      "##text": 7563,
      "##entive": 7564,
      "##enteng": 7565,
      "##alig": 7566,
      "##alip": 7567,
      "##alamp": 7568,
      "##alvp": 7569,
      "##almamoreno": 7570,
      "##tiv": 7571,
      "##tity": 7572,
      "##tival": 7573,
      "##tific": 7574,
      "##tiveness": 7575,
      "##arr": 7576,
      "##arter": 7577,
      "##arat": 7578,
      "##arya": 7579,
      "##arch": 7580,
      "##arma": 7581,
      "##arant": 7582,
      "##aramdaman": 7583,
      "nae": 7584,
      "nau": 7585,
      "naga": 7586,
      "naten": 7587,
      "nahah": 7588,
      "##anging": 7589,
      "##angle": 7590,
      "##angina": 7591,
      "##angsagot": 7592,
      "##erve": 7593,
      "##haba": 7594,
      "##haplan": 7595,
      "roi": 7596,
      "row": 7597,
      "road": 7598,
      "role": 7599,
      "roll": 7600,
      "romb": 7601,
      "rooting": 7602,
      "##agic": 7603,
      "##agine": 7604,
      "##agalit": 7605,
      "##agamot": 7606,
      "##agdag": 7607,
      "##agbul": 7608,
      "##estion": 7609,
      "##espeto": 7610,
      "##oria": 7611,
      "##oration": 7612,
      "##ormous": 7613,
      "ant": 7614,
      "ani": 7615,
      "anom": 7616,
      "anum": 7617,
      "roxaswan": 7618,
      "urge": 7619,
      "sit": 7620,
      "sipag": 7621,
      "simiriam": 7622,
      "##akw": 7623,
      "##akpakan": 7624,
      "##akusahan": 7625,
      "maramdaman": 7626,
      "margin": 7627,
      "marwit": 7628,
      "##ilin": 7629,
      "##ilid": 7630,
      "##ilala": 7631,
      "##ilos": 7632,
      "##ilabutan": 7633,
      "mendo": 7634,
      "mentality": 7635,
      "##amon": 7636,
      "##amar": 7637,
      "##amed": 7638,
      "##amily": 7639,
      "##amigay": 7640,
      "thom": 7641,
      "thous": 7642,
      "thurs": 7643,
      "##ingit": 7644,
      "##unte": 7645,
      "##unate": 7646,
      "##unts": 7647,
      "##unuan": 7648,
      "##unahin": 7649,
      "saj": 7650,
      "savage": 7651,
      "##tern": 7652,
      "##teryo": 7653,
      "##atak": 7654,
      "##atya": 7655,
      "pogi": 7656,
      "pointing": 7657,
      "##isk": 7658,
      "##isang": 7659,
      "##isma": 7660,
      "##isihan": 7661,
      "##otang": 7662,
      "duh": 7663,
      "duda": 7664,
      "theory": 7665,
      "thewrap": 7666,
      "niño": 7667,
      "nigga": 7668,
      "##ides": 7669,
      "##idor": 7670,
      "##idilim": 7671,
      "toh": 7672,
      "angat": 7673,
      "angkin": 7674,
      "angkan": 7675,
      "##apak": 7676,
      "##awalan": 7677,
      "##awards": 7678,
      "ngip": 7679,
      "nganga": 7680,
      "ngunit": 7681,
      "##eda": 7682,
      "##edes": 7683,
      "##edge": 7684,
      "##oucan": 7685,
      "inac": 7686,
      "inuti": 7687,
      "intro": 7688,
      "informed": 7689,
      "injus": 7690,
      "indecis": 7691,
      "##roots": 7692,
      "##adik": 7693,
      "##irit": 7694,
      "##abo": 7695,
      "##abinay": 7696,
      "##ably": 7697,
      "##abol": 7698,
      "##abili": 7699,
      "##abato": 7700,
      "##ogi": 7701,
      "poejuangco": 7702,
      "##cell": 7703,
      "##ceive": 7704,
      "##lement": 7705,
      "##leto": 7706,
      "hav": 7707,
      "haaa": 7708,
      "hails": 7709,
      "##omm": 7710,
      "ofc": 7711,
      "atty": 7712,
      "attain": 7713,
      "kai": 7714,
      "kaug": 7715,
      "kausap": 7716,
      "forg": 7717,
      "force": 7718,
      "format": 7719,
      "##igat": 7720,
      "##ulations": 7721,
      "##ulitika": 7722,
      "##???????": 7723,
      "##ipan": 7724,
      "##ipped": 7725,
      "##uss": 7726,
      "##usay": 7727,
      "pack": 7728,
      "##gacy": 7729,
      "##andom": 7730,
      "##uty": 7731,
      "##utukan": 7732,
      "##eldo": 7733,
      "##elming": 7734,
      "alc": 7735,
      "alis": 7736,
      "alth": 7737,
      "alangan": 7738,
      "alfred": 7739,
      "moko": 7740,
      "mock": 7741,
      "movie": 7742,
      "##residente": 7743,
      "##rem": 7744,
      "##rew": 7745,
      "##reen": 7746,
      "##reci": 7747,
      "##reams": 7748,
      "##otes": 7749,
      "reid": 7750,
      "reve": 7751,
      "reform": 7752,
      "requir": 7753,
      "revers": 7754,
      "react": 7755,
      "reelection": 7756,
      "reklamo": 7757,
      "realize": 7758,
      "##osa": 7759,
      "##oses": 7760,
      "##oseb": 7761,
      "##akaawa": 7762,
      "notot": 7763,
      "notoc": 7764,
      "##olve": 7765,
      "##oloy": 7766,
      "##olanda": 7767,
      "beats": 7768,
      "##uments": 7769,
      "##umulitika": 7770,
      "dikt": 7771,
      "##ilipat": 7772,
      "##ahero": 7773,
      "park": 7774,
      "pareng": 7775,
      "parinig": 7776,
      "magulo": 7777,
      "magalit": 7778,
      "magaganap": 7779,
      "magaz": 7780,
      "mayo": 7781,
      "page": 7782,
      "pagpap": 7783,
      "pagnanakaw": 7784,
      "##upt": 7785,
      "##upit": 7786,
      "##icul": 7787,
      "##icop": 7788,
      "##icipal": 7789,
      "##ictiveness": 7790,
      "rts": 7791,
      "nagnanakaw": 7792,
      "nagawang": 7793,
      "nagpa": 7794,
      "nagpat": 7795,
      "nagaganap": 7796,
      "viter": 7797,
      "naki": 7798,
      "nakay": 7799,
      "nakat": 7800,
      "nakara": 7801,
      "nakikitang": 7802,
      "##ecuti": 7803,
      "##ima": 7804,
      "##imb": 7805,
      "##imen": 7806,
      "##imination": 7807,
      "##imgas": 7808,
      "comics": 7809,
      "##uri": 7810,
      "##urot": 7811,
      "##urate": 7812,
      "##urrence": 7813,
      "bae": 7814,
      "bait": 7815,
      "bauti": 7816,
      "votebuy": 7817,
      "votejames": 7818,
      "shots": 7819,
      "shunga": 7820,
      "ayalas": 7821,
      "ayokong": 7822,
      "trade": 7823,
      "manl": 7824,
      "manood": 7825,
      "perman": 7826,
      "chis": 7827,
      "chix": 7828,
      "chika": 7829,
      "unp": 7830,
      "union": 7831,
      "stuck": 7832,
      "aber": 7833,
      "abad": 7834,
      "abangan": 7835,
      "absta": 7836,
      "abunda": 7837,
      "##eba": 7838,
      "##eber": 7839,
      "##ebtamang": 7840,
      "##star": 7841,
      "##stand": 7842,
      "##stories": 7843,
      "##stantly": 7844,
      "##ikot": 7845,
      "##acu": 7846,
      "##acan": 7847,
      "##acle": 7848,
      "##ampal": 7849,
      "##ample": 7850,
      "amoy": 7851,
      "sinabihan": 7852,
      "sinulot": 7853,
      "prom": 7854,
      "prop": 7855,
      "proves": 7856,
      "provision": 7857,
      "prosec": 7858,
      "product": 7859,
      "commun": 7860,
      "commission": 7861,
      "halong": 7862,
      "##cho": 7863,
      "##opang": 7864,
      "meme": 7865,
      "##ustino": 7866,
      "##iber": 7867,
      "##ibly": 7868,
      "##ibagong": 7869,
      "ifuga": 7870,
      "soon": 7871,
      "nanalong": 7872,
      "senmiriam": 7873,
      "##matic": 7874,
      "onlybinaynatayo": 7875,
      "conyo": 7876,
      "constantly": 7877,
      "dee": 7878,
      "##laugh": 7879,
      "##question": 7880,
      "ibibigay": 7881,
      "math": 7882,
      "matindi": 7883,
      "match": 7884,
      "mature": 7885,
      "##uwad": 7886,
      "##uweba": 7887,
      "##enders": 7888,
      "pinang": 7889,
      "pinalabas": 7890,
      "tau": 7891,
      "taunts": 7892,
      "tangn": 7893,
      "donald": 7894,
      "##ukt": 7895,
      "##ukl": 7896,
      "##ukayo": 7897,
      "##ukasan": 7898,
      "##ckers": 7899,
      "##ckbus": 7900,
      "##tedpresident": 7901,
      "area": 7902,
      "..\"": 7903,
      "legacy": 7904,
      "##forbinay": 7905,
      "##forms": 7906,
      "##igno": 7907,
      "maa": 7908,
      "mait": 7909,
      "maiw": 7910,
      "maagang": 7911,
      "maiwan": 7912,
      "maintindihan": 7913,
      "##erson": 7914,
      "##ership": 7915,
      "doj": 7916,
      "doomed": 7917,
      "##portation": 7918,
      "##orruption": 7919,
      "weed": 7920,
      "plato": 7921,
      "pledge": 7922,
      "##apatay": 7923,
      "##apatunayan": 7924,
      "peg": 7925,
      "pangit": 7926,
      "panget": 7927,
      "pangangampanya": 7928,
      "pangungurakot": 7929,
      "##uhod": 7930,
      "##uhugot": 7931,
      "##ighter": 7932,
      "newsfe": 7933,
      "##allyoucan": 7934,
      "##mbery": 7935,
      "##estyon": 7936,
      "##ubug": 7937,
      "##ffy": 7938,
      "##ffff": 7939,
      "natakot": 7940,
      "##ansa": 7941,
      "##eniorc": 7942,
      "##udo": 7943,
      "##uded": 7944,
      "##antos": 7945,
      "##perate": 7946,
      "dinam": 7947,
      "dinadamay": 7948,
      "restr": 7949,
      "resort": 7950,
      "namam": 7951,
      "named": 7952,
      "namamatay": 7953,
      "exha": 7954,
      "extra": 7955,
      "excell": 7956,
      "example": 7957,
      "grass": 7958,
      "grades": 7959,
      "group": 7960,
      "##andidate": 7961,
      "kanang": 7962,
      "kaninang": 7963,
      "spr": 7964,
      "spare": 7965,
      "split": 7966,
      "goodvibes": 7967,
      "suppos": 7968,
      "apo": 7969,
      "apc": 7970,
      "apl": 7971,
      "apart": 7972,
      "apihin": 7973,
      "score": 7974,
      "scrap": 7975,
      "knya": 7976,
      "blamed": 7977,
      "##alloween": 7978,
      "tsss": 7979,
      "accep": 7980,
      "nakakapang": 7981,
      "nakakastress": 7982,
      "##tations": 7983,
      "putak": 7984,
      "putcha": 7985,
      "ikampanya": 7986,
      "ikalawang": 7987,
      "ikumpara": 7988,
      "nangako": 7989,
      "nangangampanya": 7990,
      "##pinoy": 7991,
      "evacu": 7992,
      "##daysto": 7993,
      "##ize": 7994,
      "uso": 7995,
      "uses": 7996,
      "##phvote": 7997,
      "##phoon": 7998,
      "ending": 7999,
      "endorsement": 8000,
      "lif": 8001,
      "living": 8002,
      "liable": 8003,
      "literal": 8004,
      "offense": 8005,
      "vsu": 8006,
      "##ugin": 8007,
      "##inoong": 8008,
      "bato": 8009,
      "bats": 8010,
      "napat": 8011,
      "napili": 8012,
      "napunta": 8013,
      "napakab": 8014,
      "napanuod": 8015,
      "napapatunayan": 8016,
      "aran": 8017,
      "aren": 8018,
      "malay": 8019,
      "malimgas": 8020,
      "ent": 8021,
      "ends": 8022,
      "enlighten": 8023,
      "enormous": 8024,
      "faustino": 8025,
      "presidentiald": 8026,
      "nowhere": 8027,
      "quits": 8028,
      "quota": 8029,
      "quarter": 8030,
      "2012": 8031,
      "pakib": 8032,
      "pakinggan": 8033,
      "pakialam": 8034,
      "##apped": 8035,
      "supported": 8036,
      "letting": 8037,
      "overs": 8038,
      "overwh": 8039,
      "overheard": 8040,
      "sector": 8041,
      "ulat": 8042,
      "ultimate": 8043,
      "ginastos": 8044,
      "counted": 8045,
      "##ameme": 8046,
      "##oneous": 8047,
      "ahas": 8048,
      "lols": 8049,
      "seem": 8050,
      "seek": 8051,
      "##tically": 8052,
      "issued": 8053,
      "panin": 8054,
      "panan": 8055,
      "panot": 8056,
      "paninisi": 8057,
      "panibagong": 8058,
      "tulungan": 8059,
      "binat": 8060,
      "binig": 8061,
      "binib": 8062,
      "binubul": 8063,
      "binubug": 8064,
      "bagyo": 8065,
      "bagito": 8066,
      "hayy": 8067,
      "sheet": 8068,
      "bigtime": 8069,
      "kangkungan": 8070,
      "gift": 8071,
      "outside": 8072,
      "sorrynots": 8073,
      "incons": 8074,
      "incentive": 8075,
      "sabot": 8076,
      "sabihan": 8077,
      "sabagay": 8078,
      "2016nurs": 8079,
      "2016phvote": 8080,
      "mahina": 8081,
      "mahilig": 8082,
      "##iwang": 8083,
      "???????????": 8084,
      "teen": 8085,
      "##undan": 8086,
      "brat": 8087,
      "mamamayan": 8088,
      "aldubt": 8089,
      "aldubh": 8090,
      "aldubmiss": 8091,
      "aldubunt": 8092,
      "aldubwish": 8093,
      "aldubebtamang": 8094,
      "prel": 8095,
      "pride": 8096,
      "prime": 8097,
      "proud": 8098,
      "palagay": 8099,
      "semen": 8100,
      "tatad": 8101,
      "##eryrh": 8102,
      "admits": 8103,
      "defends": 8104,
      "defense": 8105,
      "bilangan": 8106,
      "##abaihan": 8107,
      "tumataas": 8108,
      "tumutulong": 8109,
      "##abash": 8110,
      "##abasag": 8111,
      "cheater": 8112,
      "cheaters": 8113,
      "11m": 8114,
      "madaya": 8115,
      "madadaya": 8116,
      "madrama": 8117,
      "taxpay": 8118,
      "wahaha": 8119,
      "waited": 8120,
      "basag": 8121,
      "basahin": 8122,
      "hero": 8123,
      "import": 8124,
      "imahin": 8125,
      "##hhhhh": 8126,
      "patak": 8127,
      "patut": 8128,
      "patawa": 8129,
      "patulan": 8130,
      "patunayan": 8131,
      "patayin": 8132,
      "tinangg": 8133,
      "tinuligsa": 8134,
      "tinidor": 8135,
      "##pected": 8136,
      "therefore": 8137,
      "agenda": 8138,
      "agwat": 8139,
      "##ourage": 8140,
      "lumalaban": 8141,
      "needed": 8142,
      "concurrence": 8143,
      "acct": 8144,
      "opport": 8145,
      "sumasakit": 8146,
      "umi": 8147,
      "umangat": 8148,
      "umuwi": 8149,
      "##bless": 8150,
      "anytime": 8151,
      "##amangan": 8152,
      "badly": 8153,
      "puny": 8154,
      "sometim": 8155,
      "charged": 8156,
      "charisma": 8157,
      "##anggol": 8158,
      "insens": 8159,
      "clan": 8160,
      "clap": 8161,
      "clos": 8162,
      "clari": 8163,
      "train": 8164,
      "trail": 8165,
      "trains": 8166,
      "yolanda2year": 8167,
      "balayan": 8168,
      "balukt": 8169,
      "jusq": 8170,
      "katabi": 8171,
      "katawan": 8172,
      "katukayo": 8173,
      "##nered": 8174,
      "botohan": 8175,
      "libong": 8176,
      "libog": 8177,
      "pumila": 8178,
      "pumili": 8179,
      "swift": 8180,
      "sweldo": 8181,
      "internation": 8182,
      "pasahero": 8183,
      "pamahala": 8184,
      "prepare": 8185,
      "##palit": 8186,
      "sakim": 8187,
      "sakuna": 8188,
      "stopping": 8189,
      "bulacan": 8190,
      "joint": 8191,
      "10m": 8192,
      "danao": 8193,
      "##rown": 8194,
      "##ressive": 8195,
      "magkikita": 8196,
      "##onsensya": 8197,
      "mangurakot": 8198,
      "mangampanya": 8199,
      "pula": 8200,
      "pulis": 8201,
      "pulling": 8202,
      "pulpol": 8203,
      "sold": 8204,
      "marroxas2016": 8205,
      "nakausap": 8206,
      "impyern": 8207,
      "implement": 8208,
      "##ftw": 8209,
      "demand": 8210,
      "gumanap": 8211,
      "salvo": 8212,
      "annoyed": 8213,
      "kalat": 8214,
      "kakar": 8215,
      "raising": 8216,
      "bansang": 8217,
      "kameng": 8218,
      "pababayaan": 8219,
      "##ished": 8220,
      "hates": 8221,
      "sham": 8222,
      "invitation": 8223,
      "readiness": 8224,
      "boob": 8225,
      "booing": 8226,
      "boooooo": 8227,
      "merong": 8228,
      "mabab": 8229,
      "mabub": 8230,
      "mabigat": 8231,
      "magsays": 8232,
      "sayangin": 8233,
      "consisten": 8234,
      "miser": 8235,
      "mapanood": 8236,
      "mandate": 8237,
      "mandamay": 8238,
      "mandadaya": 8239,
      "mandaraya": 8240,
      "nararamdaman": 8241,
      "utas": 8242,
      "recent": 8243,
      "recently": 8244,
      "recomm": 8245,
      "partly": 8246,
      "appla": 8247,
      "buo": 8248,
      "smell": 8249,
      "small": 8250,
      "smart": 8251,
      "smiling": 8252,
      "nabb": 8253,
      "nabul": 8254,
      "changing": 8255,
      "davila": 8256,
      "##igilan": 8257,
      "replic": 8258,
      "understand": 8259,
      "meets": 8260,
      "confuse": 8261,
      "earth": 8262,
      "earning": 8263,
      "gagawa": 8264,
      "##uanos": 8265,
      "##aksyonrepor": 8266,
      "held": 8267,
      "helicop": 8268,
      "kabahan": 8269,
      "kababayan": 8270,
      "kabisado": 8271,
      "sunud": 8272,
      "##live": 8273,
      "##apanood": 8274,
      "##apanuod": 8275,
      "reality": 8276,
      "expo": 8277,
      "12m": 8278,
      "inquirerdot": 8279,
      "statesman": 8280,
      "##itizen": 8281,
      "##pped": 8282,
      "##jective": 8283,
      "##assment": 8284,
      "godbless": 8285,
      "publiko": 8286,
      "cebuanos": 8287,
      "kulungan": 8288,
      "##mark": 8289,
      "ilan": 8290,
      "##yyy": 8291,
      "##cifer": 8292,
      "##mission": 8293,
      "carry": 8294,
      "djp": 8295,
      "tara": 8296,
      "taray": 8297,
      "thoughts": 8298,
      "defensive": 8299,
      "maliitin": 8300,
      "breaks": 8301,
      "eliti": 8302,
      "farce": 8303,
      "nasus": 8304,
      "nasira": 8305,
      "allegation": 8306,
      "barf": 8307,
      "elections2016": 8308,
      "failing": 8309,
      "switched": 8310,
      "---": 8311,
      "##timony": 8312,
      "humanda": 8313,
      "humbled": 8314,
      "humahabol": 8315,
      "humabol": 8316,
      "humuhugot": 8317,
      "lalabas": 8318,
      "minds": 8319,
      "##hable": 8320,
      "##agalaw": 8321,
      "ordered": 8322,
      "accusation": 8323,
      "harder": 8324,
      "suarez": 8325,
      "sufficiency": 8326,
      "sonny": 8327,
      "nagkaroon": 8328,
      "nagkadayaan": 8329,
      "claiming": 8330,
      "judging": 8331,
      "monitor": 8332,
      "nababahala": 8333,
      "dumalo": 8334,
      "dumami": 8335,
      "dumidilim": 8336,
      "info": 8337,
      "infomercial": 8338,
      "##versity": 8339,
      "##versary": 8340,
      "actual": 8341,
      "dzrh": 8342,
      "ipang": 8343,
      "ipilit": 8344,
      "ipagd": 8345,
      "kumuha": 8346,
      "kumpara": 8347,
      "kumakain": 8348,
      "##hots": 8349,
      "simpatya": 8350,
      "isipan": 8351,
      "nagbayad": 8352,
      "personnel": 8353,
      "cheaper": 8354,
      "macho": 8355,
      "##hinenews": 8356,
      "nagtataka": 8357,
      "tv5aksyonsatang": 8358,
      "feelings": 8359,
      "questioned": 8360,
      "questionable": 8361,
      "2022": 8362,
      "edwin": 8363,
      "editorial": 8364,
      "steals": 8365,
      "##daanan": 8366,
      "##daangmatuwid": 8367,
      "classmate": 8368,
      "doubts": 8369,
      "gumamit": 8370,
      "!!!!!!!!": 8371,
      "thankyou": 8372,
      "##aaaaaaaa": 8373,
      "netong": 8374,
      "netfli": 8375,
      "##world": 8376,
      "##lsu": 8377,
      "remate": 8378,
      "critics": 8379,
      "criticized": 8380,
      "twodaysto": 8381,
      "officially": 8382,
      "otwolto": 8383,
      "otwolloves": 8384,
      "otwolharan": 8385,
      "damaging": 8386,
      "luv": 8387,
      "lucifer": 8388,
      "##comes": 8389,
      "remembery": 8390,
      "transfer": 8391,
      "transportation": 8392,
      "##struction": 8393,
      "continues": 8394,
      "spending": 8395,
      "spenders": 8396,
      "workers": 8397,
      "baby": 8398,
      "hinakot": 8399,
      "key": 8400,
      "keme": 8401,
      "keyn": 8402,
      "kept": 8403,
      "tuta": 8404,
      "tutal": 8405,
      "##visitor": 8406,
      "##visitsuplb": 8407,
      "mangyayaring": 8408,
      "243": 8409,
      "gloria": 8410,
      "greet": 8411,
      "iginiit": 8412,
      "kadiliman": 8413,
      "lima": 8414,
      "pormal": 8415,
      "##ronkap": 8416,
      "pinapansin": 8417,
      "pinapalabas": 8418,
      "makakapag": 8419,
      "investment": 8420,
      "investments": 8421,
      "following": 8422,
      "gamely": 8423,
      "killings": 8424,
      "puputi": 8425,
      "pupunta": 8426,
      "sasakyan": 8427,
      "##oldstories": 8428,
      "unless": 8429,
      "unlucky": 8430,
      "##llllll": 8431,
      "criminals": 8432,
      "friendly": 8433,
      "bilib": 8434,
      "gonz": 8435,
      "luneta": 8436,
      "##going": 8437,
      "##erespeto": 8438,
      "sawang": 8439,
      "possibly": 8440,
      "reported": 8441,
      "reporting": 8442,
      "assoc": 8443,
      "legarda": 8444,
      "nakakabadtrip": 8445,
      "signs": 8446,
      "?????????????????????": 8447,
      "images": 8448,
      "passed": 8449,
      "romualdezes": 8450,
      "files": 8451,
      "kakaiba": 8452,
      "sings": 8453,
      "typhoon": 8454,
      "throwback": 8455,
      "##untang": 8456,
      "rejects": 8457,
      "nagpapaka": 8458,
      "major": 8459,
      "majasty": 8460,
      "expert": 8461,
      "kapalpakan": 8462,
      "lawyers": 8463,
      "confirm": 8464,
      "dynam": 8465,
      "##hihintay": 8466,
      "##ified": 8467,
      "ineendorso": 8468,
      "inexper": 8469,
      "iniisip": 8470,
      "iniendorso": 8471,
      "magtulungan": 8472,
      "magtataka": 8473,
      "magtutulungan": 8474,
      "depensa": 8475,
      "district": 8476,
      "laughtrip": 8477,
      "pambayad": 8478,
      "complete": 8479,
      "apologized": 8480,
      "disappointment": 8481,
      "daldal": 8482,
      "daddy": 8483,
      "payat": 8484,
      "ruin": 8485,
      "versa": 8486,
      "revolution": 8487,
      "blinded": 8488,
      "prevail": 8489,
      "complain": 8490,
      "?!!!": 8491,
      "ballers": 8492,
      "gwen": 8493,
      "imbis": 8494,
      "ipinap": 8495,
      "klaseng": 8496,
      "peste": 8497,
      "tagum": 8498,
      "isnt": 8499,
      "pagdinig": 8500,
      "pagboto": 8501,
      "nagpapat": 8502,
      "nagmamagic": 8503,
      "matutuwa": 8504,
      "printed": 8505,
      "##ductive": 8506,
      "administrasyong": 8507,
      "darker": 8508,
      "addressing": 8509,
      "prayforalmamoreno": 8510,
      "credibility": 8511,
      "finest": 8512,
      "freakin": 8513,
      "hinde": 8514,
      "umaaksyon": 8515,
      "duterts": 8516,
      "nagdad": 8517,
      "aminado": 8518,
      "sounded": 8519,
      "hahahahahahahahahahahahaha": 8520,
      "favorite": 8521,
      "señor": 8522,
      "tumatakbo": 8523,
      "ateng": 8524,
      "bwahaha": 8525,
      "drop": 8526,
      "falls": 8527,
      "kuryente": 8528,
      "pnp": 8529,
      "snatch": 8530,
      "serye": 8531,
      "treason": 8532,
      "##haaha": 8533,
      "reached": 8534,
      "differen": 8535,
      "difference": 8536,
      "pagtakbo": 8537,
      "????????????????": 8538,
      "bringing": 8539,
      "declined": 8540,
      "presscon": 8541,
      "pressured": 8542,
      "considered": 8543,
      "economy": 8544,
      "besh": 8545,
      "beses": 8546,
      "bandera": 8547,
      "cabagan": 8548,
      "finals": 8549,
      "genu": 8550,
      "general": 8551,
      "hurts": 8552,
      "ideal": 8553,
      "p100": 8554,
      "napapanuod": 8555,
      "wouldnt": 8556,
      "mapapansin": 8557,
      "pagkatalo": 8558,
      "bwas": 8559,
      "bomoto": 8560,
      "habulin": 8561,
      "irre": 8562,
      "kumpleto": 8563,
      "music": 8564,
      "muslim": 8565,
      "piñol": 8566,
      "pantawid": 8567,
      "##panahon": 8568,
      "marleni2016": 8569,
      "marleniwins": 8570,
      "indict": 8571,
      "reacted": 8572,
      "itinanggi": 8573,
      "nakikinig": 8574,
      "university": 8575,
      "contrib": 8576,
      "ibinoto": 8577,
      "##ubulsa": 8578,
      "responsible": 8579,
      "english": 8580,
      "ignor": 8581,
      "ikawnabaduterte": 8582,
      "ikawnababinay": 8583,
      "2004": 8584,
      "binati": 8585,
      "fooled": 8586,
      "gimm": 8587,
      "purpose": 8588,
      "rumespeto": 8589,
      "tiu": 8590,
      "titira": 8591,
      "##////": 8592,
      "animal": 8593,
      "attends": 8594,
      "refuses": 8595,
      "remain": 8596,
      "begin": 8597,
      "partida": 8598,
      "shirts": 8599,
      "chosen": 8600,
      "properties": 8601,
      "spread": 8602,
      "hahahahahahha": 8603,
      "napaaral": 8604,
      "articles": 8605,
      "insulting": 8606,
      "insulto": 8607,
      "minamaliit": 8608,
      "pshronkap": 8609,
      "delivered": 8610,
      "barbar": 8611,
      "selfishpoe": 8612,
      "momentum": 8613,
      "congrats": 8614,
      "543": 8615,
      "burning": 8616,
      "easy": 8617,
      "easily": 8618,
      "growing": 8619,
      "gentleman": 8620,
      "ilagay": 8621,
      "kriminal": 8622,
      "krimen": 8623,
      "sugges": 8624,
      "tenga": 8625,
      "atras": 8626,
      "beastmode": 8627,
      "violence": 8628,
      "comparing": 8629,
      "development": 8630,
      "makukulong": 8631,
      "nakakapikon": 8632,
      "napaghah": 8633,
      "napagamot": 8634,
      "arrog": 8635,
      "pakisabi": 8636,
      "erroneous": 8637,
      "gloc9": 8638,
      "hypocrite": 8639,
      "irritating": 8640,
      "bugtong": 8641,
      "effort": 8642,
      "harapin": 8643,
      "sampalin": 8644,
      "testimony": 8645,
      "tipong": 8646,
      "##orcade": 8647,
      "tourism": 8648,
      "request": 8649,
      "requested": 8650,
      "repeat": 8651,
      "proposed": 8652,
      "proposals": 8653,
      "committee": 8654,
      "sentiment": 8655,
      "destiny": 8656,
      "destined": 8657,
      "residents": 8658,
      "residency": 8659,
      "spox": 8660,
      "spoiled": 8661,
      "aldub16thweeksary": 8662,
      "sumusuko": 8663,
      "pagkakaiba": 8664,
      "criticizes": 8665,
      "??????????????????????????": 8666,
      "employees": 8667,
      "statistics": 8668,
      "certainly": 8669,
      "ggvlaugh": 8670,
      "controversial": 8671,
      "beyondpolitics": 8672,
      "596": 8673,
      "avoiding": 8674,
      "bisaya": 8675,
      "buwaya": 8676,
      "ginisa": 8677,
      "motorcade": 8678,
      "oops": 8679,
      "p500": 8680,
      "ridicul": 8681,
      "volunte": 8682,
      "##nomore": 8683,
      "naitulong": 8684,
      "##ulaklak": 8685,
      "released": 8686,
      "nagiisip": 8687,
      "triangle": 8688,
      "perpetual": 8689,
      "##uweed": 8690,
      "destruct": 8691,
      "makikipag": 8692,
      "places": 8693,
      "kaninong": 8694,
      "akusasyon": 8695,
      "artista": 8696,
      "printcon": 8697,
      "probinsya": 8698,
      "?!?!": 8699,
      "basically": 8700,
      "serbisyo": 8701,
      "pinagtutulungan": 8702,
      "kinabukasan": 8703,
      "kakulay": 8704,
      "represent": 8705,
      "reputation": 8706,
      "influence": 8707,
      "onlybinayunasaseniorc": 8708,
      "submitting": 8709,
      "samantalang": 8710,
      "cleaners": 8711,
      "dagupan": 8712,
      "intelligent": 8713,
      "professional": 8714,
      "flashback": 8715,
      "restaurant": 8716,
      "naglalakad": 8717,
      ":(((((((": 8718,
      "congratulations": 8719,
      "sultanate": 8720,
      "sambayanan": 8721,
      "358": 8722,
      ":'(": 8723,
      "alegasyon": 8724,
      "cousins": 8725,
      "frozen": 8726,
      "gawing": 8727,
      "iwas": 8728,
      "joseph": 8729,
      "multi": 8730,
      "pissed": 8731,
      "ranks": 8732,
      "sonshinenews": 8733,
      "tigas": 8734,
      "tikom": 8735,
      "techn": 8736,
      "uusig": 8737,
      "website": 8738,
      "##mokayako": 8739,
      "##husga": 8740,
      "##interview": 8741,
      "sipsip": 8742,
      "situation": 8743,
      "maruming": 8744,
      "nirerespeto": 8745,
      "ongpin": 8746,
      "##ablockbus": 8747,
      "notolp": 8748,
      "beauty": 8749,
      "adopting": 8750,
      "partisan": 8751,
      "paghahangad": 8752,
      "competence": 8753,
      "truly": 8754,
      "maniniwala": 8755,
      "perfect": 8756,
      "chuchu": 8757,
      "channel": 8758,
      "amerikano": 8759,
      "commandments": 8760,
      "degrade": 8761,
      "maayosaksyonrepor": 8762,
      "pangatlo": 8763,
      "disrespect": 8764,
      "washes": 8765,
      "exchange": 8766,
      "exemption": 8767,
      "extremely": 8768,
      "nakakarindi": 8769,
      "entertain": 8770,
      "ulikba": 8771,
      "panuorin": 8772,
      "sarcasm": 8773,
      "aldubthevisitor": 8774,
      "advertisment": 8775,
      "kinikilabutan": 8776,
      "guanzon": 8777,
      "naiimagine": 8778,
      "misleading": 8779,
      "recountvp": 8780,
      "families": 8781,
      "nagkakamali": 8782,
      "kumukuha": 8783,
      "machinery": 8784,
      "##weekend": 8785,
      "college": 8786,
      "iglesia": 8787,
      "correct": 8788,
      "empower": 8789,
      "inequality": 8790,
      "pbbthebigweekend": 8791,
      "abiascbn": 8792,
      "makabuluhang": 8793,
      "precinct": 8794,
      "federalism": 8795,
      "micronutrient": 8796,
      "wheelchairs": 8797,
      "womaniz": 8798,
      "condemns": 8799,
      "apechottie": 8800,
      "5sos": 8801,
      "cabanatuan": 8802,
      "dswd": 8803,
      "embarr": 8804,
      "ecija": 8805,
      "festival": 8806,
      "gathering": 8807,
      "icymi": 8808,
      "lungs": 8809,
      "ligao": 8810,
      "lindol": 8811,
      "middle": 8812,
      "pamangkin": 8813,
      "rallies": 8814,
      "salaula": 8815,
      "salitang": 8816,
      "scheme": 8817,
      "tisoy": 8818,
      "tubig": 8819,
      "vindictiveness": 8820,
      "##serye": 8821,
      "romblon": 8822,
      "##agbulagan": 8823,
      "anumang": 8824,
      "roxaswantedpresident": 8825,
      "simiriamangsagot": 8826,
      "marwithaplan": 8827,
      "mendoza": 8828,
      "##amilyablockbus": 8829,
      "thomas": 8830,
      "thousand": 8831,
      "thursday": 8832,
      "ngipin": 8833,
      "injustices": 8834,
      "indecisive": 8835,
      "although": 8836,
      "##reciate": 8837,
      "required": 8838,
      "##osebumps": 8839,
      "magazine": 8840,
      "nakaraang": 8841,
      "##ecutive": 8842,
      "bautista": 8843,
      "votejamesfpp": 8844,
      "abstain": 8845,
      "ifugao": 8846,
      "maiwasan": 8847,
      "newsfeed": 8848,
      "grassroots": 8849,
      "supposed": 8850,
      "accepted": 8851,
      "overwhelming": 8852,
      "binubully": 8853,
      "binubugbog": 8854,
      "sorrynotsorry": 8855,
      "2016nurseryrh": 8856,
      "aldubmissing": 8857,
      "aldubuntoldstories": 8858,
      "aldubwishmokayako": 8859,
      "sementeryo": 8860,
      "taxpayers": 8861,
      "imahinasyon": 8862,
      "sometimes": 8863,
      "clarifies": 8864,
      "yolanda2yearson": 8865,
      "international": 8866,
      "pamahalaan": 8867,
      "impyerno": 8868,
      "magsaysay": 8869,
      "replicate": 8870,
      "helicopter": 8871,
      "inquirerdotnet": 8872,
      "tv5aksyonsatanghali": 8873,
      "netflix": 8874,
      "otwolloveshots": 8875,
      "otwolharana": 8876,
      "rememberyolanda": 8877,
      "pshronkapamilyablockbus": 8878,
      "ggvlaughallyoucan": 8879,
      "onlybinayunasaseniorcitizen": 8880,
      "sonshinenewsblast": 8881,
      "maayosaksyonreporma": 8882,
      "2016nurseryrhymes": 8883,
      "pshronkapamilyablockbuster": 8884,
      "!.": 8885,
      "!,": 8886,
      "![": 8887,
      "\"-": 8888,
      "\"'": 8889,
      "\"!": 8890,
      "\"#": 8891,
      "\"????": 8892,
      "\"..": 8893,
      "#…": 8894,
      "(#": 8895,
      "):": 8896,
      ",.": 8897,
      ",,": 8898,
      ",’": 8899,
      "-\"": 8900,
      "-#": 8901,
      ".…": 8902,
      "/\"": 8903,
      "//": 8904,
      "07": 8905,
      "02": 8906,
      "1b": 8907,
      "2k": 8908,
      "28": 8909,
      "269": 8910,
      "2year": 8911,
      "290": 8912,
      "291": 8913,
      "2yrs": 8914,
      "40": 8915,
      "47": 8916,
      "46": 8917,
      "4ever": 8918,
      "58": 8919,
      "67": 8920,
      "70": 8921,
      "7th": 8922,
      "700m": 8923,
      "761": 8924,
      "742": 8925,
      "80": 8926,
      "861": 8927,
      "930": 8928,
      "924": 8929,
      ":’": 8930,
      ":...": 8931,
      ";.": 8932,
      ";/": 8933,
      "?…": 8934,
      "?(": 8935,
      "?#": 8936,
      "?:": 8937,
      "?’": 8938,
      "?;": 8939,
      "]\"": 8940,
      "__": 8941,
      "az": 8942,
      "ain": 8943,
      "aan": 8944,
      "aay": 8945,
      "aar": 8946,
      "aer": 8947,
      "aid": 8948,
      "aaw": 8949,
      "aro": 8950,
      "aya": 8951,
      "aia": 8952,
      "aide": 8953,
      "ahahahaha": 8954,
      "aww": 8955,
      "aahon": 8956,
      "ahah": 8957,
      "ahahah": 8958,
      "aabot": 8959,
      "arest": 8960,
      "bn": 8961,
      "bg": 8962,
      "bv": 8963,
      "b3": 8964,
      "bung": 8965,
      "bog": 8966,
      "bent": 8967,
      "balan": 8968,
      "bust": 8969,
      "baya": 8970,
      "buk": 8971,
      "bck": 8972,
      "bila": 8973,
      "bess": 8974,
      "buh": 8975,
      "base": 8976,
      "bcos": 8977,
      "bff": 8978,
      "binis": 8979,
      "banda": 8980,
      "bili": 8981,
      "biz": 8982,
      "babe": 8983,
      "bka": 8984,
      "bite": 8985,
      "beng": 8986,
      "babang": 8987,
      "banc": 8988,
      "bound": 8989,
      "bingo": 8990,
      "cy": 8991,
      "ci": 8992,
      "cay": 8993,
      "cot": 8994,
      "cent": 8995,
      "cel": 8996,
      "cos": 8997,
      "cell": 8998,
      "cough": 8999,
      "cct": 9000,
      "cada": 9001,
      "cable": 9002,
      "cge": 9003,
      "cree": 9004,
      "cams": 9005,
      "civ": 9006,
      "calam": 9007,
      "coup": 9008,
      "ds": 9009,
      "dh": 9010,
      "dti": 9011,
      "der": 9012,
      "ded": 9013,
      "deb": 9014,
      "dama": 9015,
      "d30": 9016,
      "dame": 9017,
      "deta": 9018,
      "dba": 9019,
      "dason": 9020,
      "dying": 9021,
      "dots": 9022,
      "dasal": 9023,
      "dipl": 9024,
      "dreams": 9025,
      "dlsu": 9026,
      "eag": 9027,
      "edu": 9028,
      "elang": 9029,
      "ebook": 9030,
      "eager": 9031,
      "ecop": 9032,
      "ft": 9033,
      "fo": 9034,
      "fla": 9035,
      "fee": 9036,
      "fast": 9037,
      "fame": 9038,
      "four": 9039,
      "fana": 9040,
      "fold": 9041,
      "fif": 9042,
      "fusion": 9043,
      "field": 9044,
      "fully": 9045,
      "fury": 9046,
      "gal": 9047,
      "gang": 9048,
      "gam": 9049,
      "gab": 9050,
      "gul": 9051,
      "gand": 9052,
      "gut": 9053,
      "gos": 9054,
      "gee": 9055,
      "gano": 9056,
      "gest": 9057,
      "gone": 9058,
      "gpoe": 9059,
      "games": 9060,
      "gastos": 9061,
      "guts": 9062,
      "gsto": 9063,
      "gardo": 9064,
      "ganto": 9065,
      "gilid": 9066,
      "gurot": 9067,
      "ginoong": 9068,
      "hm": 9069,
      "hq": 9070,
      "h8": 9071,
      "han": 9072,
      "haw": 9073,
      "hom": 9074,
      "hill": 9075,
      "hoo": 9076,
      "halo": 9077,
      "hamp": 9078,
      "hud": 9079,
      "hund": 9080,
      "hhahaha": 9081,
      "hula": 9082,
      "hound": 9083,
      "hired": 9084,
      "hesit": 9085,
      "iti": 9086,
      "ice": 9087,
      "iec": 9088,
      "ibinay": 9089,
      "iyon": 9090,
      "imiss": 9091,
      "iye": 9092,
      "iii": 9093,
      "iretweet": 9094,
      "iisang": 9095,
      "ja": 9096,
      "je": 9097,
      "jb": 9098,
      "jn": 9099,
      "jon": 9100,
      "jad": 9101,
      "joe": 9102,
      "jolo": 9103,
[...]
